// Auto-generated header file from TFLite model
// Model: drongonet-nano.tflite
// Size: 5,544 bytes (5.41 KB)
// Generated for: Arduino/ARM Cortex-M (TFLite Micro)

#ifndef DRONGONET_NANO_H
#define DRONGONET_NANO_H

// Model stored as unsigned char array in program memory
const unsigned char drongonet_nano[] = {
  0x1c, 0x00, 0x00, 0x00, 0x54, 0x46, 0x4c, 0x33, 0x14, 0x00, 0x20, 0x00,
  0x1c, 0x00, 0x18, 0x00, 0x14, 0x00, 0x10, 0x00, 0x0c, 0x00, 0x00, 0x00,
  0x08, 0x00, 0x04, 0x00, 0x14, 0x00, 0x00, 0x00, 0x1c, 0x00, 0x00, 0x00,
  0x80, 0x00, 0x00, 0x00, 0xd8, 0x00, 0x00, 0x00, 0x78, 0x05, 0x00, 0x00,
  0x88, 0x05, 0x00, 0x00, 0xbc, 0x14, 0x00, 0x00, 0x03, 0x00, 0x00, 0x00,
  0x01, 0x00, 0x00, 0x00, 0x04, 0x00, 0x00, 0x00, 0x26, 0xfa, 0xff, 0xff,
  0x0c, 0x00, 0x00, 0x00, 0x1c, 0x00, 0x00, 0x00, 0x38, 0x00, 0x00, 0x00,
  0x0f, 0x00, 0x00, 0x00, 0x73, 0x65, 0x72, 0x76, 0x69, 0x6e, 0x67, 0x5f,
  0x64, 0x65, 0x66, 0x61, 0x75, 0x6c, 0x74, 0x00, 0x01, 0x00, 0x00, 0x00,
  0x04, 0x00, 0x00, 0x00, 0x9c, 0xff, 0xff, 0xff, 0x11, 0x00, 0x00, 0x00,
  0x04, 0x00, 0x00, 0x00, 0x05, 0x00, 0x00, 0x00, 0x64, 0x65, 0x6e, 0x73,
  0x65, 0x00, 0x00, 0x00, 0x01, 0x00, 0x00, 0x00, 0x04, 0x00, 0x00, 0x00,
  0x2e, 0xfa, 0xff, 0xff, 0x04, 0x00, 0x00, 0x00, 0x07, 0x00, 0x00, 0x00,
  0x69, 0x6e, 0x70, 0x75, 0x74, 0x5f, 0x31, 0x00, 0x02, 0x00, 0x00, 0x00,
  0x34, 0x00, 0x00, 0x00, 0x04, 0x00, 0x00, 0x00, 0xdc, 0xff, 0xff, 0xff,
  0x14, 0x00, 0x00, 0x00, 0x04, 0x00, 0x00, 0x00, 0x13, 0x00, 0x00, 0x00,
  0x43, 0x4f, 0x4e, 0x56, 0x45, 0x52, 0x53, 0x49, 0x4f, 0x4e, 0x5f, 0x4d,
  0x45, 0x54, 0x41, 0x44, 0x41, 0x54, 0x41, 0x00, 0x08, 0x00, 0x0c, 0x00,
  0x08, 0x00, 0x04, 0x00, 0x08, 0x00, 0x00, 0x00, 0x13, 0x00, 0x00, 0x00,
  0x04, 0x00, 0x00, 0x00, 0x13, 0x00, 0x00, 0x00, 0x6d, 0x69, 0x6e, 0x5f,
  0x72, 0x75, 0x6e, 0x74, 0x69, 0x6d, 0x65, 0x5f, 0x76, 0x65, 0x72, 0x73,
  0x69, 0x6f, 0x6e, 0x00, 0x15, 0x00, 0x00, 0x00, 0x9c, 0x04, 0x00, 0x00,
  0x94, 0x04, 0x00, 0x00, 0x7c, 0x04, 0x00, 0x00, 0x64, 0x04, 0x00, 0x00,
  0x3c, 0x04, 0x00, 0x00, 0xfc, 0x03, 0x00, 0x00, 0x64, 0x01, 0x00, 0x00,
  0x3c, 0x01, 0x00, 0x00, 0xf4, 0x00, 0x00, 0x00, 0xd4, 0x00, 0x00, 0x00,
  0xcc, 0x00, 0x00, 0x00, 0xc4, 0x00, 0x00, 0x00, 0xbc, 0x00, 0x00, 0x00,
  0xb4, 0x00, 0x00, 0x00, 0xac, 0x00, 0x00, 0x00, 0xa4, 0x00, 0x00, 0x00,
  0x9c, 0x00, 0x00, 0x00, 0x94, 0x00, 0x00, 0x00, 0x8c, 0x00, 0x00, 0x00,
  0x6c, 0x00, 0x00, 0x00, 0x04, 0x00, 0x00, 0x00, 0xf6, 0xfa, 0xff, 0xff,
  0x04, 0x00, 0x00, 0x00, 0x58, 0x00, 0x00, 0x00, 0x0c, 0x00, 0x00, 0x00,
  0x08, 0x00, 0x0e, 0x00, 0x08, 0x00, 0x04, 0x00, 0x08, 0x00, 0x00, 0x00,
  0x10, 0x00, 0x00, 0x00, 0x28, 0x00, 0x00, 0x00, 0x00, 0x00, 0x06, 0x00,
  0x08, 0x00, 0x04, 0x00, 0x06, 0x00, 0x00, 0x00, 0x04, 0x00, 0x00, 0x00,
  0x01, 0x00, 0x00, 0x00, 0xeb, 0x03, 0x00, 0x00, 0x00, 0x00, 0x0a, 0x00,
  0x10, 0x00, 0x0c, 0x00, 0x08, 0x00, 0x04, 0x00, 0x0a, 0x00, 0x00, 0x00,
  0x02, 0x00, 0x00, 0x00, 0x02, 0x00, 0x00, 0x00, 0x04, 0x00, 0x00, 0x00,
  0x06, 0x00, 0x00, 0x00, 0x32, 0x2e, 0x31, 0x35, 0x2e, 0x30, 0x00, 0x00,
  0x5a, 0xfb, 0xff, 0xff, 0x04, 0x00, 0x00, 0x00, 0x10, 0x00, 0x00, 0x00,
  0x31, 0x2e, 0x31, 0x34, 0x2e, 0x30, 0x00, 0x00, 0x00, 0x00, 0x00, 0x00,
  0x00, 0x00, 0x00, 0x00, 0x24, 0xed, 0xff, 0xff, 0x28, 0xed, 0xff, 0xff,
  0x2c, 0xed, 0xff, 0xff, 0x30, 0xed, 0xff, 0xff, 0x34, 0xed, 0xff, 0xff,
  0x38, 0xed, 0xff, 0xff, 0x3c, 0xed, 0xff, 0xff, 0x40, 0xed, 0xff, 0xff,
  0x44, 0xed, 0xff, 0xff, 0x9a, 0xfb, 0xff, 0xff, 0x04, 0x00, 0x00, 0x00,
  0x10, 0x00, 0x00, 0x00, 0x79, 0x5c, 0x72, 0x70, 0x7f, 0x7e, 0x7f, 0x75,
  0x7e, 0x7f, 0x7a, 0x7f, 0x7f, 0x7e, 0x7f, 0x6b, 0xb6, 0xfb, 0xff, 0xff,
  0x04, 0x00, 0x00, 0x00, 0x36, 0x00, 0x00, 0x00, 0xd7, 0x7f, 0x11, 0xe6,
  0x77, 0xf1, 0xdf, 0x34, 0xdc, 0xf1, 0xb1, 0x55, 0xbc, 0xc5, 0x7f, 0xbf,
  0xd3, 0x6a, 0xc6, 0x32, 0xfa, 0x81, 0xff, 0xbb, 0x30, 0x69, 0x49, 0x7f,
  0x37, 0x0e, 0x70, 0x28, 0xf5, 0x38, 0x0f, 0xf8, 0xf5, 0x81, 0xdf, 0x52,
  0xd9, 0x06, 0x25, 0xc6, 0xf6, 0x00, 0x00, 0x00, 0x00, 0x00, 0x00, 0x00,
  0x00, 0x00, 0x00, 0x00, 0xfa, 0xfb, 0xff, 0xff, 0x04, 0x00, 0x00, 0x00,
  0x18, 0x00, 0x00, 0x00, 0xbe, 0xfb, 0xff, 0xff, 0x86, 0x0a, 0x00, 0x00,
  0x8f, 0xeb, 0xff, 0xff, 0xc7, 0xbc, 0xff, 0xff, 0x7a, 0x46, 0x00, 0x00,
  0x70, 0x77, 0x31, 0xf6, 0x1e, 0xfc, 0xff, 0xff, 0x04, 0x00, 0x00, 0x00,
  0x88, 0x02, 0x00, 0x00, 0x35, 0x0f, 0x18, 0xa9, 0xe7, 0x00, 0x81, 0x23,
  0x2b, 0xf0, 0x46, 0x00, 0xfa, 0xd5, 0x23, 0xe2, 0x10, 0x00, 0xfc, 0xf0,
  0x36, 0xa9, 0xf4, 0x00, 0x8a, 0xfa, 0x43, 0xe9, 0x35, 0x00, 0xea, 0xce,
  0x43, 0xdc, 0xfe, 0x00, 0x3c, 0xc7, 0x2e, 0x18, 0xb6, 0x00, 0xcf, 0xd8,
  0x15, 0x51, 0xec, 0x00, 0x32, 0xd8, 0x20, 0x34, 0xb7, 0x00, 0x00, 0xc9,
  0x1c, 0xc2, 0x39, 0x00, 0xed, 0x34, 0x0d, 0xad, 0x42, 0x00, 0xbf, 0x03,
  0x06, 0xea, 0x48, 0x00, 0x12, 0xa7, 0x04, 0xf9, 0x01, 0x00, 0x0d, 0xf3,
  0xea, 0x00, 0xfa, 0x00, 0xe7, 0x03, 0xe5, 0x13, 0x00, 0x00, 0x30, 0x81,
  0xf7, 0x3b, 0xcc, 0x00, 0x36, 0xe5, 0xdb, 0x1a, 0xb3, 0x00, 0x09, 0x04,
  0xe2, 0x39, 0xc7, 0x00, 0xe0, 0xf7, 0xe8, 0xbb, 0x38, 0x00, 0xf8, 0x56,
  0xf9, 0xd8, 0xc9, 0x00, 0x7f, 0x4a, 0xde, 0x3a, 0xf8, 0x00, 0xf0, 0xf0,
  0xf0, 0x0d, 0x25, 0x00, 0xcf, 0xff, 0xdf, 0xe5, 0xbf, 0x00, 0x4b, 0xe8,
  0x95, 0xf6, 0xf0, 0x00, 0x18, 0x1c, 0x0a, 0x4a, 0x30, 0x00, 0xdd, 0xac,
  0xef, 0x2a, 0xe5, 0x00, 0xf3, 0xad, 0x8a, 0xa0, 0x0d, 0x00, 0x00, 0x00,
  0x00, 0x00, 0x00, 0x00, 0x00, 0x00, 0x00, 0x00, 0x00, 0x00, 0x00, 0x00,
  0x00, 0x00, 0x00, 0x00, 0x00, 0x00, 0x00, 0x00, 0x00, 0x00, 0x00, 0x00,
  0x00, 0x00, 0x00, 0x00, 0x00, 0x00, 0x00, 0x00, 0x00, 0x00, 0x00, 0x00,
  0x00, 0x00, 0x00, 0x00, 0x00, 0x00, 0x00, 0x00, 0x00, 0x00, 0x00, 0x00,
  0x00, 0x00, 0x00, 0x00, 0x26, 0xbb, 0x40, 0x1f, 0x37, 0x00, 0x7f, 0x1b,
  0x2b, 0xfd, 0xb9, 0x00, 0xbd, 0x4d, 0xbb, 0x35, 0xfe, 0x00, 0x2c, 0xc0,
  0x38, 0x33, 0x2f, 0x00, 0x75, 0x1c, 0x1d, 0xfc, 0xbf, 0x00, 0xd4, 0x53,
  0xc5, 0x31, 0xf2, 0x00, 0x19, 0xc6, 0x33, 0x0c, 0x42, 0x00, 0x63, 0x59,
  0x30, 0xd7, 0xcf, 0x00, 0xac, 0x5c, 0xc7, 0x0c, 0x20, 0x00, 0xe8, 0x69,
  0xe4, 0xa6, 0xf3, 0x00, 0x5b, 0x4d, 0xdc, 0x25, 0x1a, 0x00, 0xae, 0xfc,
  0xff, 0x41, 0x45, 0x00, 0x17, 0x09, 0xe3, 0xd7, 0xf5, 0x00, 0x31, 0xde,
  0x96, 0x11, 0x1f, 0x00, 0xb9, 0xf2, 0xf1, 0x1e, 0x0f, 0x00, 0x3b, 0x88,
  0xcd, 0x31, 0x01, 0x00, 0x01, 0xb1, 0x81, 0xc5, 0x28, 0x00, 0xe6, 0xf8,
  0xed, 0xf9, 0xe7, 0x00, 0x17, 0x03, 0xef, 0x38, 0x1e, 0x00, 0xc9, 0x87,
  0x06, 0x0e, 0xe2, 0x00, 0xe5, 0x01, 0xa4, 0x8d, 0x11, 0x00, 0xfd, 0xf8,
  0xe0, 0x13, 0x10, 0x00, 0xc6, 0xfe, 0x00, 0xe5, 0xca, 0x00, 0x2e, 0x07,
  0xcd, 0xfc, 0xf3, 0x00, 0xe5, 0x1d, 0xeb, 0xd6, 0x21, 0x00, 0xfa, 0x7d,
  0x26, 0xd7, 0xd7, 0x00, 0x7f, 0xf1, 0xc5, 0x56, 0x17, 0x00, 0x7f, 0xbe,
  0x13, 0x29, 0xa7, 0x00, 0x1a, 0x4a, 0x16, 0x47, 0xea, 0x00, 0xf8, 0xe6,
  0xfc, 0x53, 0xe3, 0x00, 0x28, 0xd3, 0x10, 0xa5, 0xef, 0x00, 0xa9, 0x3d,
  0x13, 0xc2, 0x36, 0x00, 0xa3, 0xda, 0x03, 0xe0, 0x1a, 0x00, 0x22, 0xcd,
  0x5e, 0xa5, 0x00, 0x00, 0x98, 0x34, 0x5b, 0xb8, 0x4c, 0x00, 0x8b, 0xd3,
  0x47, 0xf2, 0x25, 0x00, 0xf0, 0x06, 0x02, 0xe4, 0xee, 0x00, 0xe9, 0x27,
  0xeb, 0xdb, 0xed, 0x00, 0x44, 0x43, 0xc7, 0x1b, 0x02, 0x00, 0xf1, 0xed,
  0xfe, 0xec, 0xee, 0x00, 0xde, 0xfc, 0xea, 0xe6, 0xec, 0x00, 0x3e, 0xff,
  0x94, 0x1c, 0xfd, 0x00, 0x0c, 0xf0, 0x0c, 0x1b, 0xf5, 0x00, 0xe2, 0xbb,
  0xf6, 0x05, 0xf3, 0x00, 0xf1, 0xc5, 0x81, 0xf0, 0x04, 0x00, 0xef, 0x05,
  0x05, 0xe2, 0xf1, 0x00, 0xde, 0x24, 0xed, 0xe3, 0xeb, 0x00, 0x41, 0x35,
  0xbe, 0x23, 0x00, 0x00, 0xf5, 0xed, 0x01, 0xf6, 0xf1, 0x00, 0xdb, 0xfc,
  0xeb, 0xea, 0xe9, 0x00, 0x35, 0x02, 0x93, 0x0c, 0xfc, 0x00, 0x02, 0xef,
  0x0e, 0x11, 0xf6, 0x00, 0xed, 0xc6, 0xf6, 0x07, 0xee, 0x00, 0x08, 0xd3,
  0x81, 0xeb, 0x02, 0x00, 0xcc, 0x20, 0xfe, 0xb2, 0x69, 0x00, 0x3f, 0x52,
  0xef, 0xfd, 0x86, 0x00, 0x51, 0x48, 0x08, 0x10, 0xdc, 0x00, 0xe7, 0xf0,
  0x05, 0xf7, 0x5e, 0x00, 0x0a, 0xd6, 0xc7, 0xed, 0x81, 0x00, 0x0f, 0xee,
  0xce, 0xf4, 0xc1, 0x00, 0x2a, 0xe8, 0x2c, 0x58, 0x7b, 0x00, 0xda, 0x89,
  0xcf, 0xfb, 0xc2, 0x00, 0xe7, 0xd3, 0xc9, 0xb0, 0xcc, 0x00, 0x01, 0xfb,
  0xed, 0xdc, 0xef, 0x00, 0xf0, 0xec, 0xdd, 0xec, 0xd9, 0x00, 0x1b, 0x2a,
  0xa6, 0x07, 0x09, 0x00, 0xff, 0xdb, 0xe7, 0xe6, 0xf0, 0x00, 0xdc, 0xf4,
  0xde, 0xe1, 0xd8, 0x00, 0x45, 0xff, 0x92, 0x17, 0xfe, 0x00, 0x01, 0xca,
  0xf2, 0xf6, 0xf7, 0x00, 0xed, 0xee, 0xe7, 0xef, 0xe0, 0x00, 0x33, 0xdc,
  0x81, 0x12, 0x06, 0x00, 0xb2, 0xfe, 0xff, 0xff, 0x04, 0x00, 0x00, 0x00,
  0x30, 0x00, 0x00, 0x00, 0x24, 0x21, 0x00, 0x00, 0xef, 0xf5, 0xff, 0xff,
  0xe7, 0xfc, 0xff, 0xff, 0x00, 0x00, 0x00, 0xc0, 0xf1, 0x1e, 0xff, 0xff,
  0x60, 0xdc, 0xff, 0xff, 0x33, 0x00, 0x00, 0x00, 0xcb, 0x03, 0x00, 0x00,
  0xb2, 0x1c, 0x00, 0x00, 0x9e, 0x1d, 0x00, 0x00, 0x9a, 0x08, 0x00, 0x00,
  0xf0, 0x2d, 0x00, 0x00, 0xee, 0xfe, 0xff, 0xff, 0x04, 0x00, 0x00, 0x00,
  0x18, 0x00, 0x00, 0x00, 0x68, 0x44, 0x97, 0xf6, 0x16, 0x8f, 0xa4, 0x52,
  0xb4, 0xb8, 0x8b, 0xc4, 0xa0, 0xb0, 0x6f, 0xfe, 0xd5, 0x70, 0x65, 0xab,
  0x4c, 0x44, 0x7f, 0x2b, 0x12, 0xff, 0xff, 0xff, 0x04, 0x00, 0x00, 0x00,
  0x08, 0x00, 0x00, 0x00, 0x93, 0x1e, 0x00, 0x00, 0x6d, 0xe1, 0xff, 0xff,
  0x26, 0xff, 0xff, 0xff, 0x04, 0x00, 0x00, 0x00, 0x08, 0x00, 0x00, 0x00,
  0x01, 0x00, 0x00, 0x00, 0x02, 0x00, 0x00, 0x00, 0xe8, 0xf0, 0xff, 0xff,
  0xec, 0xf0, 0xff, 0xff, 0x0f, 0x00, 0x00, 0x00, 0x4d, 0x4c, 0x49, 0x52,
  0x20, 0x43, 0x6f, 0x6e, 0x76, 0x65, 0x72, 0x74, 0x65, 0x64, 0x2e, 0x00,
  0x01, 0x00, 0x00, 0x00, 0x14, 0x00, 0x00, 0x00, 0x00, 0x00, 0x0e, 0x00,
  0x18, 0x00, 0x14, 0x00, 0x10, 0x00, 0x0c, 0x00, 0x08, 0x00, 0x04, 0x00,
  0x0e, 0x00, 0x00, 0x00, 0x14, 0x00, 0x00, 0x00, 0x1c, 0x00, 0x00, 0x00,
  0x4c, 0x02, 0x00, 0x00, 0x50, 0x02, 0x00, 0x00, 0x54, 0x02, 0x00, 0x00,
  0x04, 0x00, 0x00, 0x00, 0x6d, 0x61, 0x69, 0x6e, 0x00, 0x00, 0x00, 0x00,
  0x09, 0x00, 0x00, 0x00, 0x14, 0x02, 0x00, 0x00, 0xd4, 0x01, 0x00, 0x00,
  0x74, 0x01, 0x00, 0x00, 0x20, 0x01, 0x00, 0x00, 0xdc, 0x00, 0x00, 0x00,
  0xa8, 0x00, 0x00, 0x00, 0x70, 0x00, 0x00, 0x00, 0x34, 0x00, 0x00, 0x00,
  0x10, 0x00, 0x00, 0x00, 0x00, 0x00, 0x0a, 0x00, 0x10, 0x00, 0x0c, 0x00,
  0x08, 0x00, 0x04, 0x00, 0x0a, 0x00, 0x00, 0x00, 0x0c, 0x00, 0x00, 0x00,
  0x10, 0x00, 0x00, 0x00, 0x07, 0x00, 0x00, 0x00, 0x01, 0x00, 0x00, 0x00,
  0x11, 0x00, 0x00, 0x00, 0x01, 0x00, 0x00, 0x00, 0x10, 0x00, 0x00, 0x00,
  0x86, 0xfe, 0xff, 0xff, 0x1c, 0x00, 0x00, 0x00, 0x00, 0x00, 0x00, 0x09,
  0x1c, 0x00, 0x00, 0x00, 0x20, 0x00, 0x00, 0x00, 0x06, 0x00, 0x00, 0x00,
  0x00, 0x00, 0x06, 0x00, 0x08, 0x00, 0x04, 0x00, 0x06, 0x00, 0x00, 0x00,
  0x00, 0x00, 0x80, 0x3f, 0x01, 0x00, 0x00, 0x00, 0x10, 0x00, 0x00, 0x00,
  0x01, 0x00, 0x00, 0x00, 0x0f, 0x00, 0x00, 0x00, 0xbe, 0xfe, 0xff, 0xff,
  0x14, 0x00, 0x00, 0x00, 0x00, 0x00, 0x00, 0x08, 0x10, 0x00, 0x00, 0x00,
  0x14, 0x00, 0x00, 0x00, 0x05, 0x00, 0x00, 0x00, 0xe4, 0xf1, 0xff, 0xff,
  0x01, 0x00, 0x00, 0x00, 0x0f, 0x00, 0x00, 0x00, 0x03, 0x00, 0x00, 0x00,
  0x0e, 0x00, 0x00, 0x00, 0x03, 0x00, 0x00, 0x00, 0x02, 0x00, 0x00, 0x00,
  0xf2, 0xfe, 0xff, 0xff, 0x14, 0x00, 0x00, 0x00, 0x00, 0x00, 0x00, 0x1b,
  0x10, 0x00, 0x00, 0x00, 0x14, 0x00, 0x00, 0x00, 0x04, 0x00, 0x00, 0x00,
  0x18, 0xf2, 0xff, 0xff, 0x01, 0x00, 0x00, 0x00, 0x0e, 0x00, 0x00, 0x00,
  0x02, 0x00, 0x00, 0x00, 0x0d, 0x00, 0x00, 0x00, 0x01, 0x00, 0x00, 0x00,
  0x22, 0xff, 0xff, 0xff, 0x14, 0x00, 0x00, 0x00, 0x00, 0x00, 0x00, 0x01,
  0x1c, 0x00, 0x00, 0x00, 0x20, 0x00, 0x00, 0x00, 0x02, 0x00, 0x00, 0x00,
  0x70, 0xff, 0xff, 0xff, 0x00, 0x00, 0x00, 0x01, 0x01, 0x00, 0x00, 0x00,
  0x01, 0x00, 0x00, 0x00, 0x01, 0x00, 0x00, 0x00, 0x0d, 0x00, 0x00, 0x00,
  0x03, 0x00, 0x00, 0x00, 0x0c, 0x00, 0x00, 0x00, 0x05, 0x00, 0x00, 0x00,
  0x04, 0x00, 0x00, 0x00, 0x62, 0xff, 0xff, 0xff, 0x24, 0x00, 0x00, 0x00,
  0x00, 0x00, 0x00, 0x05, 0x34, 0x00, 0x00, 0x00, 0x38, 0x00, 0x00, 0x00,
  0x03, 0x00, 0x00, 0x00, 0x00, 0x00, 0x0e, 0x00, 0x18, 0x00, 0x17, 0x00,
  0x10, 0x00, 0x0c, 0x00, 0x08, 0x00, 0x04, 0x00, 0x0e, 0x00, 0x00, 0x00,
  0x02, 0x00, 0x00, 0x00, 0x02, 0x00, 0x00, 0x00, 0x02, 0x00, 0x00, 0x00,
  0x02, 0x00, 0x00, 0x00, 0x00, 0x00, 0x00, 0x01, 0x01, 0x00, 0x00, 0x00,
  0x0c, 0x00, 0x00, 0x00, 0x01, 0x00, 0x00, 0x00, 0x0b, 0x00, 0x00, 0x00,
  0xb2, 0xff, 0xff, 0xff, 0x20, 0x00, 0x00, 0x00, 0x00, 0x00, 0x00, 0x01,
  0x28, 0x00, 0x00, 0x00, 0x2c, 0x00, 0x00, 0x00, 0x02, 0x00, 0x00, 0x00,
  0x0c, 0x00, 0x10, 0x00, 0x00, 0x00, 0x0c, 0x00, 0x08, 0x00, 0x07, 0x00,
  0x0c, 0x00, 0x00, 0x00, 0x00, 0x00, 0x00, 0x01, 0x01, 0x00, 0x00, 0x00,
  0x01, 0x00, 0x00, 0x00, 0x01, 0x00, 0x00, 0x00, 0x0b, 0x00, 0x00, 0x00,
  0x03, 0x00, 0x00, 0x00, 0x0a, 0x00, 0x00, 0x00, 0x07, 0x00, 0x00, 0x00,
  0x06, 0x00, 0x00, 0x00, 0x00, 0x00, 0x0e, 0x00, 0x18, 0x00, 0x14, 0x00,
  0x10, 0x00, 0x0c, 0x00, 0x0b, 0x00, 0x04, 0x00, 0x0e, 0x00, 0x00, 0x00,
  0x14, 0x00, 0x00, 0x00, 0x00, 0x00, 0x00, 0x15, 0x10, 0x00, 0x00, 0x00,
  0x14, 0x00, 0x00, 0x00, 0x01, 0x00, 0x00, 0x00, 0x34, 0xf3, 0xff, 0xff,
  0x01, 0x00, 0x00, 0x00, 0x0a, 0x00, 0x00, 0x00, 0x02, 0x00, 0x00, 0x00,
  0x09, 0x00, 0x00, 0x00, 0x08, 0x00, 0x00, 0x00, 0x00, 0x00, 0x0a, 0x00,
  0x0c, 0x00, 0x00, 0x00, 0x08, 0x00, 0x04, 0x00, 0x0a, 0x00, 0x00, 0x00,
  0x08, 0x00, 0x00, 0x00, 0x0c, 0x00, 0x00, 0x00, 0x01, 0x00, 0x00, 0x00,
  0x09, 0x00, 0x00, 0x00, 0x01, 0x00, 0x00, 0x00, 0x00, 0x00, 0x00, 0x00,
  0x01, 0x00, 0x00, 0x00, 0x11, 0x00, 0x00, 0x00, 0x01, 0x00, 0x00, 0x00,
  0x00, 0x00, 0x00, 0x00, 0x12, 0x00, 0x00, 0x00, 0x48, 0x0c, 0x00, 0x00,
  0xb4, 0x0b, 0x00, 0x00, 0x0c, 0x0b, 0x00, 0x00, 0x94, 0x0a, 0x00, 0x00,
  0x88, 0x09, 0x00, 0x00, 0x7c, 0x08, 0x00, 0x00, 0xb8, 0x07, 0x00, 0x00,
  0xf4, 0x06, 0x00, 0x00, 0x60, 0x06, 0x00, 0x00, 0xdc, 0x05, 0x00, 0x00,
  0x20, 0x05, 0x00, 0x00, 0xfc, 0x03, 0x00, 0x00, 0x58, 0x03, 0x00, 0x00,
  0x2c, 0x02, 0x00, 0x00, 0x90, 0x01, 0x00, 0x00, 0xdc, 0x00, 0x00, 0x00,
  0x60, 0x00, 0x00, 0x00, 0x04, 0x00, 0x00, 0x00, 0x16, 0xf4, 0xff, 0xff,
  0x00, 0x00, 0x00, 0x01, 0x14, 0x00, 0x00, 0x00, 0x1c, 0x00, 0x00, 0x00,
  0x1c, 0x00, 0x00, 0x00, 0x12, 0x00, 0x00, 0x00, 0x34, 0x00, 0x00, 0x00,
  0x02, 0x00, 0x00, 0x00, 0xff, 0xff, 0xff, 0xff, 0x02, 0x00, 0x00, 0x00,
  0xf8, 0xf3, 0xff, 0xff, 0x19, 0x00, 0x00, 0x00, 0x53, 0x74, 0x61, 0x74,
  0x65, 0x66, 0x75, 0x6c, 0x50, 0x61, 0x72, 0x74, 0x69, 0x74, 0x69, 0x6f,
  0x6e, 0x65, 0x64, 0x43, 0x61, 0x6c, 0x6c, 0x3a, 0x30, 0x00, 0x00, 0x00,
  0x02, 0x00, 0x00, 0x00, 0x01, 0x00, 0x00, 0x00, 0x02, 0x00, 0x00, 0x00,
  0xb6, 0xfa, 0xff, 0xff, 0x00, 0x00, 0x00, 0x01, 0x18, 0x00, 0x00, 0x00,
  0x20, 0x00, 0x00, 0x00, 0x3c, 0x00, 0x00, 0x00, 0x11, 0x00, 0x00, 0x00,
  0x00, 0x00, 0x00, 0x09, 0x50, 0x00, 0x00, 0x00, 0x02, 0x00, 0x00, 0x00,
  0xff, 0xff, 0xff, 0xff, 0x02, 0x00, 0x00, 0x00, 0x9c, 0xf5, 0xff, 0xff,
  0x08, 0x00, 0x00, 0x00, 0x10, 0x00, 0x00, 0x00, 0x01, 0x00, 0x00, 0x00,
  0x80, 0xff, 0xff, 0xff, 0xff, 0xff, 0xff, 0xff, 0x01, 0x00, 0x00, 0x00,
  0x00, 0x00, 0x80, 0x3b, 0x1a, 0x00, 0x00, 0x00, 0x53, 0x74, 0x61, 0x74,
  0x65, 0x66, 0x75, 0x6c, 0x50, 0x61, 0x72, 0x74, 0x69, 0x74, 0x69, 0x6f,
  0x6e, 0x65, 0x64, 0x43, 0x61, 0x6c, 0x6c, 0x3a, 0x30, 0x31, 0x00, 0x00,
  0x02, 0x00, 0x00, 0x00, 0x01, 0x00, 0x00, 0x00, 0x02, 0x00, 0x00, 0x00,
  0x2e, 0xfb, 0xff, 0xff, 0x00, 0x00, 0x00, 0x01, 0x18, 0x00, 0x00, 0x00,
  0x20, 0x00, 0x00, 0x00, 0x3c, 0x00, 0x00, 0x00, 0x10, 0x00, 0x00, 0x00,
  0x00, 0x00, 0x00, 0x09, 0x88, 0x00, 0x00, 0x00, 0x02, 0x00, 0x00, 0x00,
  0xff, 0xff, 0xff, 0xff, 0x02, 0x00, 0x00, 0x00, 0x14, 0xf6, 0xff, 0xff,
  0x08, 0x00, 0x00, 0x00, 0x10, 0x00, 0x00, 0x00, 0x01, 0x00, 0x00, 0x00,
  0x03, 0x00, 0x00, 0x00, 0x00, 0x00, 0x00, 0x00, 0x01, 0x00, 0x00, 0x00,
  0xd3, 0xf2, 0x66, 0x3c, 0x50, 0x00, 0x00, 0x00, 0x53, 0x45, 0x41, 0x42,
  0x41, 0x44, 0x5f, 0x4c, 0x6f, 0x77, 0x5f, 0x50, 0x6f, 0x77, 0x65, 0x72,
  0x5f, 0x4f, 0x70, 0x74, 0x69, 0x6d, 0x69, 0x7a, 0x65, 0x64, 0x2f, 0x64,
  0x65, 0x6e, 0x73, 0x65, 0x2f, 0x4d, 0x61, 0x74, 0x4d, 0x75, 0x6c, 0x3b,
  0x53, 0x45, 0x41, 0x42, 0x41, 0x44, 0x5f, 0x4c, 0x6f, 0x77, 0x5f, 0x50,
  0x6f, 0x77, 0x65, 0x72, 0x5f, 0x4f, 0x70, 0x74, 0x69, 0x6d, 0x69, 0x7a,
  0x65, 0x64, 0x2f, 0x64, 0x65, 0x6e, 0x73, 0x65, 0x2f, 0x42, 0x69, 0x61,
  0x73, 0x41, 0x64, 0x64, 0x00, 0x00, 0x00, 0x00, 0x02, 0x00, 0x00, 0x00,
  0x01, 0x00, 0x00, 0x00, 0x02, 0x00, 0x00, 0x00, 0xde, 0xfb, 0xff, 0xff,
  0x00, 0x00, 0x00, 0x01, 0x18, 0x00, 0x00, 0x00, 0x20, 0x00, 0x00, 0x00,
  0x3c, 0x00, 0x00, 0x00, 0x0f, 0x00, 0x00, 0x00, 0x00, 0x00, 0x00, 0x09,
  0x70, 0x00, 0x00, 0x00, 0x02, 0x00, 0x00, 0x00, 0xff, 0xff, 0xff, 0xff,
  0x0c, 0x00, 0x00, 0x00, 0xc4, 0xf6, 0xff, 0xff, 0x08, 0x00, 0x00, 0x00,
  0x10, 0x00, 0x00, 0x00, 0x01, 0x00, 0x00, 0x00, 0x80, 0xff, 0xff, 0xff,
  0xff, 0xff, 0xff, 0xff, 0x01, 0x00, 0x00, 0x00, 0x5a, 0x77, 0x64, 0x3a,
  0x38, 0x00, 0x00, 0x00, 0x53, 0x45, 0x41, 0x42, 0x41, 0x44, 0x5f, 0x4c,
  0x6f, 0x77, 0x5f, 0x50, 0x6f, 0x77, 0x65, 0x72, 0x5f, 0x4f, 0x70, 0x74,
  0x69, 0x6d, 0x69, 0x7a, 0x65, 0x64, 0x2f, 0x67, 0x6c, 0x6f, 0x62, 0x61,
  0x6c, 0x5f, 0x61, 0x76, 0x65, 0x72, 0x61, 0x67, 0x65, 0x5f, 0x70, 0x6f,
  0x6f, 0x6c, 0x69, 0x6e, 0x67, 0x32, 0x64, 0x2f, 0x4d, 0x65, 0x61, 0x6e,
  0x00, 0x00, 0x00, 0x00, 0x02, 0x00, 0x00, 0x00, 0x01, 0x00, 0x00, 0x00,
  0x0c, 0x00, 0x00, 0x00, 0x76, 0xfc, 0xff, 0xff, 0x00, 0x00, 0x00, 0x01,
  0x18, 0x00, 0x00, 0x00, 0x28, 0x00, 0x00, 0x00, 0x44, 0x00, 0x00, 0x00,
  0x0e, 0x00, 0x00, 0x00, 0x00, 0x00, 0x00, 0x09, 0xf8, 0x00, 0x00, 0x00,
  0x04, 0x00, 0x00, 0x00, 0xff, 0xff, 0xff, 0xff, 0x5c, 0x00, 0x00, 0x00,
  0x08, 0x00, 0x00, 0x00, 0x0c, 0x00, 0x00, 0x00, 0x64, 0xf7, 0xff, 0xff,
  0x08, 0x00, 0x00, 0x00, 0x10, 0x00, 0x00, 0x00, 0x01, 0x00, 0x00, 0x00,
  0x80, 0xff, 0xff, 0xff, 0xff, 0xff, 0xff, 0xff, 0x01, 0x00, 0x00, 0x00,
  0x8d, 0xc2, 0x01, 0x3c, 0xba, 0x00, 0x00, 0x00, 0x53, 0x45, 0x41, 0x42,
  0x41, 0x44, 0x5f, 0x4c, 0x6f, 0x77, 0x5f, 0x50, 0x6f, 0x77, 0x65, 0x72,
  0x5f, 0x4f, 0x70, 0x74, 0x69, 0x6d, 0x69, 0x7a, 0x65, 0x64, 0x2f, 0x63,
  0x6f, 0x6e, 0x76, 0x32, 0x64, 0x5f, 0x31, 0x2f, 0x52, 0x65, 0x6c, 0x75,
  0x3b, 0x53, 0x45, 0x41, 0x42, 0x41, 0x44, 0x5f, 0x4c, 0x6f, 0x77, 0x5f,
  0x50, 0x6f, 0x77, 0x65, 0x72, 0x5f, 0x4f, 0x70, 0x74, 0x69, 0x6d, 0x69,
  0x7a, 0x65, 0x64, 0x2f, 0x63, 0x6f, 0x6e, 0x76, 0x32, 0x64, 0x5f, 0x31,
  0x2f, 0x42, 0x69, 0x61, 0x73, 0x41, 0x64, 0x64, 0x3b, 0x53, 0x45, 0x41,
  0x42, 0x41, 0x44, 0x5f, 0x4c, 0x6f, 0x77, 0x5f, 0x50, 0x6f, 0x77, 0x65,
  0x72, 0x5f, 0x4f, 0x70, 0x74, 0x69, 0x6d, 0x69, 0x7a, 0x65, 0x64, 0x2f,
  0x63, 0x6f, 0x6e, 0x76, 0x32, 0x64, 0x5f, 0x31, 0x2f, 0x43, 0x6f, 0x6e,
  0x76, 0x32, 0x44, 0x3b, 0x53, 0x45, 0x41, 0x42, 0x41, 0x44, 0x5f, 0x4c,
  0x6f, 0x77, 0x5f, 0x50, 0x6f, 0x77, 0x65, 0x72, 0x5f, 0x4f, 0x70, 0x74,
  0x69, 0x6d, 0x69, 0x7a, 0x65, 0x64, 0x2f, 0x63, 0x6f, 0x6e, 0x76, 0x32,
  0x64, 0x5f, 0x31, 0x2f, 0x42, 0x69, 0x61, 0x73, 0x41, 0x64, 0x64, 0x2f,
  0x52, 0x65, 0x61, 0x64, 0x56, 0x61, 0x72, 0x69, 0x61, 0x62, 0x6c, 0x65,
  0x4f, 0x70, 0x00, 0x00, 0x04, 0x00, 0x00, 0x00, 0x01, 0x00, 0x00, 0x00,
  0x5c, 0x00, 0x00, 0x00, 0x08, 0x00, 0x00, 0x00, 0x0c, 0x00, 0x00, 0x00,
  0x9e, 0xfd, 0xff, 0xff, 0x00, 0x00, 0x00, 0x01, 0x18, 0x00, 0x00, 0x00,
  0x28, 0x00, 0x00, 0x00, 0x44, 0x00, 0x00, 0x00, 0x0d, 0x00, 0x00, 0x00,
  0x00, 0x00, 0x00, 0x09, 0x70, 0x00, 0x00, 0x00, 0x04, 0x00, 0x00, 0x00,
  0xff, 0xff, 0xff, 0xff, 0x5c, 0x00, 0x00, 0x00, 0x08, 0x00, 0x00, 0x00,
  0x06, 0x00, 0x00, 0x00, 0x8c, 0xf8, 0xff, 0xff, 0x08, 0x00, 0x00, 0x00,
  0x10, 0x00, 0x00, 0x00, 0x01, 0x00, 0x00, 0x00, 0x80, 0xff, 0xff, 0xff,
  0xff, 0xff, 0xff, 0xff, 0x01, 0x00, 0x00, 0x00, 0x0a, 0x56, 0x00, 0x3c,
  0x30, 0x00, 0x00, 0x00, 0x53, 0x45, 0x41, 0x42, 0x41, 0x44, 0x5f, 0x4c,
  0x6f, 0x77, 0x5f, 0x50, 0x6f, 0x77, 0x65, 0x72, 0x5f, 0x4f, 0x70, 0x74,
  0x69, 0x6d, 0x69, 0x7a, 0x65, 0x64, 0x2f, 0x6d, 0x61, 0x78, 0x5f, 0x70,
  0x6f, 0x6f, 0x6c, 0x69, 0x6e, 0x67, 0x32, 0x64, 0x2f, 0x4d, 0x61, 0x78,
  0x50, 0x6f, 0x6f, 0x6c, 0x00, 0x00, 0x00, 0x00, 0x04, 0x00, 0x00, 0x00,
  0x01, 0x00, 0x00, 0x00, 0x5c, 0x00, 0x00, 0x00, 0x08, 0x00, 0x00, 0x00,
  0x06, 0x00, 0x00, 0x00, 0x3e, 0xfe, 0xff, 0xff, 0x00, 0x00, 0x00, 0x01,
  0x18, 0x00, 0x00, 0x00, 0x28, 0x00, 0x00, 0x00, 0x44, 0x00, 0x00, 0x00,
  0x0c, 0x00, 0x00, 0x00, 0x00, 0x00, 0x00, 0x09, 0xf0, 0x00, 0x00, 0x00,
  0x04, 0x00, 0x00, 0x00, 0xff, 0xff, 0xff, 0xff, 0xb8, 0x00, 0x00, 0x00,
  0x10, 0x00, 0x00, 0x00, 0x06, 0x00, 0x00, 0x00, 0x2c, 0xf9, 0xff, 0xff,
  0x08, 0x00, 0x00, 0x00, 0x10, 0x00, 0x00, 0x00, 0x01, 0x00, 0x00, 0x00,
  0x80, 0xff, 0xff, 0xff, 0xff, 0xff, 0xff, 0xff, 0x01, 0x00, 0x00, 0x00,
  0x0a, 0x56, 0x00, 0x3c, 0xb2, 0x00, 0x00, 0x00, 0x53, 0x45, 0x41, 0x42,
  0x41, 0x44, 0x5f, 0x4c, 0x6f, 0x77, 0x5f, 0x50, 0x6f, 0x77, 0x65, 0x72,
  0x5f, 0x4f, 0x70, 0x74, 0x69, 0x6d, 0x69, 0x7a, 0x65, 0x64, 0x2f, 0x63,
  0x6f, 0x6e, 0x76, 0x32, 0x64, 0x2f, 0x52, 0x65, 0x6c, 0x75, 0x3b, 0x53,
  0x45, 0x41, 0x42, 0x41, 0x44, 0x5f, 0x4c, 0x6f, 0x77, 0x5f, 0x50, 0x6f,
  0x77, 0x65, 0x72, 0x5f, 0x4f, 0x70, 0x74, 0x69, 0x6d, 0x69, 0x7a, 0x65,
  0x64, 0x2f, 0x63, 0x6f, 0x6e, 0x76, 0x32, 0x64, 0x2f, 0x42, 0x69, 0x61,
  0x73, 0x41, 0x64, 0x64, 0x3b, 0x53, 0x45, 0x41, 0x42, 0x41, 0x44, 0x5f,
  0x4c, 0x6f, 0x77, 0x5f, 0x50, 0x6f, 0x77, 0x65, 0x72, 0x5f, 0x4f, 0x70,
  0x74, 0x69, 0x6d, 0x69, 0x7a, 0x65, 0x64, 0x2f, 0x63, 0x6f, 0x6e, 0x76,
  0x32, 0x64, 0x2f, 0x43, 0x6f, 0x6e, 0x76, 0x32, 0x44, 0x3b, 0x53, 0x45,
  0x41, 0x42, 0x41, 0x44, 0x5f, 0x4c, 0x6f, 0x77, 0x5f, 0x50, 0x6f, 0x77,
  0x65, 0x72, 0x5f, 0x4f, 0x70, 0x74, 0x69, 0x6d, 0x69, 0x7a, 0x65, 0x64,
  0x2f, 0x63, 0x6f, 0x6e, 0x76, 0x32, 0x64, 0x2f, 0x42, 0x69, 0x61, 0x73,
  0x41, 0x64, 0x64, 0x2f, 0x52, 0x65, 0x61, 0x64, 0x56, 0x61, 0x72, 0x69,
  0x61, 0x62, 0x6c, 0x65, 0x4f, 0x70, 0x00, 0x00, 0x04, 0x00, 0x00, 0x00,
  0x01, 0x00, 0x00, 0x00, 0xb8, 0x00, 0x00, 0x00, 0x10, 0x00, 0x00, 0x00,
  0x06, 0x00, 0x00, 0x00, 0x5e, 0xff, 0xff, 0xff, 0x00, 0x00, 0x00, 0x01,
  0x18, 0x00, 0x00, 0x00, 0x28, 0x00, 0x00, 0x00, 0x44, 0x00, 0x00, 0x00,
  0x0b, 0x00, 0x00, 0x00, 0x00, 0x00, 0x00, 0x09, 0x70, 0x00, 0x00, 0x00,
  0x04, 0x00, 0x00, 0x00, 0xff, 0xff, 0xff, 0xff, 0xb8, 0x00, 0x00, 0x00,
  0x10, 0x00, 0x00, 0x00, 0x01, 0x00, 0x00, 0x00, 0x4c, 0xfa, 0xff, 0xff,
  0x08, 0x00, 0x00, 0x00, 0x10, 0x00, 0x00, 0x00, 0x01, 0x00, 0x00, 0x00,
  0x80, 0xff, 0xff, 0xff, 0xff, 0xff, 0xff, 0xff, 0x01, 0x00, 0x00, 0x00,
  0x7c, 0x80, 0x80, 0x3b, 0x33, 0x00, 0x00, 0x00, 0x53, 0x45, 0x41, 0x42,
  0x41, 0x44, 0x5f, 0x4c, 0x6f, 0x77, 0x5f, 0x50, 0x6f, 0x77, 0x65, 0x72,
  0x5f, 0x4f, 0x70, 0x74, 0x69, 0x6d, 0x69, 0x7a, 0x65, 0x64, 0x2f, 0x66,
  0x72, 0x65, 0x71, 0x75, 0x65, 0x6e, 0x63, 0x79, 0x5f, 0x65, 0x6d, 0x70,
  0x68, 0x61, 0x73, 0x69, 0x73, 0x2f, 0x6d, 0x75, 0x6c, 0x5f, 0x31, 0x00,
  0x04, 0x00, 0x00, 0x00, 0x01, 0x00, 0x00, 0x00, 0xb8, 0x00, 0x00, 0x00,
  0x10, 0x00, 0x00, 0x00, 0x01, 0x00, 0x00, 0x00, 0x00, 0x00, 0x16, 0x00,
  0x20, 0x00, 0x1c, 0x00, 0x1b, 0x00, 0x14, 0x00, 0x10, 0x00, 0x0c, 0x00,
  0x00, 0x00, 0x00, 0x00, 0x08, 0x00, 0x07, 0x00, 0x16, 0x00, 0x00, 0x00,
  0x00, 0x00, 0x00, 0x01, 0x18, 0x00, 0x00, 0x00, 0x28, 0x00, 0x00, 0x00,
  0x48, 0x00, 0x00, 0x00, 0x0a, 0x00, 0x00, 0x00, 0x00, 0x00, 0x00, 0x09,
  0x50, 0x00, 0x00, 0x00, 0x04, 0x00, 0x00, 0x00, 0xff, 0xff, 0xff, 0xff,
  0xb8, 0x00, 0x00, 0x00, 0x10, 0x00, 0x00, 0x00, 0x01, 0x00, 0x00, 0x00,
  0x04, 0xfb, 0xff, 0xff, 0x08, 0x00, 0x00, 0x00, 0x14, 0x00, 0x00, 0x00,
  0x01, 0x00, 0x00, 0x00, 0x80, 0xff, 0xff, 0xff, 0xff, 0xff, 0xff, 0xff,
  0x00, 0x00, 0x00, 0x00, 0x01, 0x00, 0x00, 0x00, 0x81, 0x80, 0x80, 0x3b,
  0x0c, 0x00, 0x00, 0x00, 0x74, 0x66, 0x6c, 0x2e, 0x71, 0x75, 0x61, 0x6e,
  0x74, 0x69, 0x7a, 0x65, 0x00, 0x00, 0x00, 0x00, 0x04, 0x00, 0x00, 0x00,
  0x01, 0x00, 0x00, 0x00, 0xb8, 0x00, 0x00, 0x00, 0x10, 0x00, 0x00, 0x00,
  0x01, 0x00, 0x00, 0x00, 0xde, 0xfa, 0xff, 0xff, 0x00, 0x00, 0x00, 0x01,
  0x14, 0x00, 0x00, 0x00, 0x34, 0x00, 0x00, 0x00, 0x09, 0x00, 0x00, 0x00,
  0x00, 0x00, 0x00, 0x09, 0x64, 0x00, 0x00, 0x00, 0x6c, 0xfb, 0xff, 0xff,
  0x08, 0x00, 0x00, 0x00, 0x14, 0x00, 0x00, 0x00, 0x01, 0x00, 0x00, 0x00,
  0x80, 0xff, 0xff, 0xff, 0xff, 0xff, 0xff, 0xff, 0x00, 0x00, 0x00, 0x00,
  0x01, 0x00, 0x00, 0x00, 0x7c, 0x80, 0x80, 0x3b, 0x35, 0x00, 0x00, 0x00,
  0x53, 0x45, 0x41, 0x42, 0x41, 0x44, 0x5f, 0x4c, 0x6f, 0x77, 0x5f, 0x50,
  0x6f, 0x77, 0x65, 0x72, 0x5f, 0x4f, 0x70, 0x74, 0x69, 0x6d, 0x69, 0x7a,
  0x65, 0x64, 0x2f, 0x66, 0x72, 0x65, 0x71, 0x75, 0x65, 0x6e, 0x63, 0x79,
  0x5f, 0x65, 0x6d, 0x70, 0x68, 0x61, 0x73, 0x69, 0x73, 0x2f, 0x53, 0x69,
  0x67, 0x6d, 0x6f, 0x69, 0x64, 0x00, 0x00, 0x00, 0x04, 0x00, 0x00, 0x00,
  0x01, 0x00, 0x00, 0x00, 0x01, 0x00, 0x00, 0x00, 0x10, 0x00, 0x00, 0x00,
  0x01, 0x00, 0x00, 0x00, 0x6e, 0xfb, 0xff, 0xff, 0x00, 0x00, 0x00, 0x01,
  0x14, 0x00, 0x00, 0x00, 0x70, 0x00, 0x00, 0x00, 0x08, 0x00, 0x00, 0x00,
  0x00, 0x00, 0x00, 0x09, 0x94, 0x00, 0x00, 0x00, 0xfc, 0xfb, 0xff, 0xff,
  0x08, 0x00, 0x00, 0x00, 0x3c, 0x00, 0x00, 0x00, 0x06, 0x00, 0x00, 0x00,
  0x00, 0x00, 0x00, 0x00, 0x00, 0x00, 0x00, 0x00, 0x00, 0x00, 0x00, 0x00,
  0x00, 0x00, 0x00, 0x00, 0x00, 0x00, 0x00, 0x00, 0x00, 0x00, 0x00, 0x00,
  0x00, 0x00, 0x00, 0x00, 0x00, 0x00, 0x00, 0x00, 0x00, 0x00, 0x00, 0x00,
  0x00, 0x00, 0x00, 0x00, 0x00, 0x00, 0x00, 0x00, 0x00, 0x00, 0x00, 0x00,
  0x00, 0x00, 0x00, 0x00, 0x06, 0x00, 0x00, 0x00, 0xa5, 0x2b, 0xed, 0x3b,
  0xbd, 0x3a, 0xf0, 0x3b, 0x4e, 0xfe, 0xfe, 0x3b, 0x44, 0xf5, 0xc5, 0x3b,
  0x16, 0x6e, 0xfa, 0x3b, 0x4a, 0x46, 0x87, 0x31, 0x28, 0x00, 0x00, 0x00,
  0x53, 0x45, 0x41, 0x42, 0x41, 0x44, 0x5f, 0x4c, 0x6f, 0x77, 0x5f, 0x50,
  0x6f, 0x77, 0x65, 0x72, 0x5f, 0x4f, 0x70, 0x74, 0x69, 0x6d, 0x69, 0x7a,
  0x65, 0x64, 0x2f, 0x63, 0x6f, 0x6e, 0x76, 0x32, 0x64, 0x2f, 0x43, 0x6f,
  0x6e, 0x76, 0x32, 0x44, 0x00, 0x00, 0x00, 0x00, 0x04, 0x00, 0x00, 0x00,
  0x06, 0x00, 0x00, 0x00, 0x03, 0x00, 0x00, 0x00, 0x03, 0x00, 0x00, 0x00,
  0x01, 0x00, 0x00, 0x00, 0x2e, 0xfc, 0xff, 0xff, 0x00, 0x00, 0x00, 0x01,
  0x14, 0x00, 0x00, 0x00, 0x6c, 0x00, 0x00, 0x00, 0x07, 0x00, 0x00, 0x00,
  0x00, 0x00, 0x00, 0x02, 0xa0, 0x00, 0x00, 0x00, 0xbc, 0xfc, 0xff, 0xff,
  0x08, 0x00, 0x00, 0x00, 0x38, 0x00, 0x00, 0x00, 0x06, 0x00, 0x00, 0x00,
  0x00, 0x00, 0x00, 0x00, 0x00, 0x00, 0x00, 0x00, 0x00, 0x00, 0x00, 0x00,
  0x00, 0x00, 0x00, 0x00, 0x00, 0x00, 0x00, 0x00, 0x00, 0x00, 0x00, 0x00,
  0x00, 0x00, 0x00, 0x00, 0x00, 0x00, 0x00, 0x00, 0x00, 0x00, 0x00, 0x00,
  0x00, 0x00, 0x00, 0x00, 0x00, 0x00, 0x00, 0x00, 0x00, 0x00, 0x00, 0x00,
  0x06, 0x00, 0x00, 0x00, 0xb6, 0x19, 0xee, 0x37, 0xe0, 0x2b, 0xf1, 0x37,
  0x43, 0xfe, 0xff, 0x37, 0xf9, 0xbb, 0xc6, 0x37, 0x77, 0x69, 0xfb, 0x37,
  0x13, 0xce, 0x87, 0x2d, 0x38, 0x00, 0x00, 0x00, 0x53, 0x45, 0x41, 0x42,
  0x41, 0x44, 0x5f, 0x4c, 0x6f, 0x77, 0x5f, 0x50, 0x6f, 0x77, 0x65, 0x72,
  0x5f, 0x4f, 0x70, 0x74, 0x69, 0x6d, 0x69, 0x7a, 0x65, 0x64, 0x2f, 0x63,
  0x6f, 0x6e, 0x76, 0x32, 0x64, 0x2f, 0x42, 0x69, 0x61, 0x73, 0x41, 0x64,
  0x64, 0x2f, 0x52, 0x65, 0x61, 0x64, 0x56, 0x61, 0x72, 0x69, 0x61, 0x62,
  0x6c, 0x65, 0x4f, 0x70, 0x00, 0x00, 0x00, 0x00, 0x01, 0x00, 0x00, 0x00,
  0x06, 0x00, 0x00, 0x00, 0xee, 0xfc, 0xff, 0xff, 0x00, 0x00, 0x00, 0x01,
  0x14, 0x00, 0x00, 0x00, 0xb8, 0x00, 0x00, 0x00, 0x06, 0x00, 0x00, 0x00,
  0x00, 0x00, 0x00, 0x09, 0xdc, 0x00, 0x00, 0x00, 0x7c, 0xfd, 0xff, 0xff,
  0x08, 0x00, 0x00, 0x00, 0x6c, 0x00, 0x00, 0x00, 0x0c, 0x00, 0x00, 0x00,
  0x00, 0x00, 0x00, 0x00, 0x00, 0x00, 0x00, 0x00, 0x00, 0x00, 0x00, 0x00,
  0x00, 0x00, 0x00, 0x00, 0x00, 0x00, 0x00, 0x00, 0x00, 0x00, 0x00, 0x00,
  0x00, 0x00, 0x00, 0x00, 0x00, 0x00, 0x00, 0x00, 0x00, 0x00, 0x00, 0x00,
  0x00, 0x00, 0x00, 0x00, 0x00, 0x00, 0x00, 0x00, 0x00, 0x00, 0x00, 0x00,
  0x00, 0x00, 0x00, 0x00, 0x00, 0x00, 0x00, 0x00, 0x00, 0x00, 0x00, 0x00,
  0x00, 0x00, 0x00, 0x00, 0x00, 0x00, 0x00, 0x00, 0x00, 0x00, 0x00, 0x00,
  0x00, 0x00, 0x00, 0x00, 0x00, 0x00, 0x00, 0x00, 0x00, 0x00, 0x00, 0x00,
  0x00, 0x00, 0x00, 0x00, 0x00, 0x00, 0x00, 0x00, 0x00, 0x00, 0x00, 0x00,
  0x00, 0x00, 0x00, 0x00, 0x0c, 0x00, 0x00, 0x00, 0x47, 0xbb, 0x7b, 0x3b,
  0x25, 0x73, 0xa6, 0x3b, 0x54, 0x98, 0x83, 0x3b, 0x2b, 0x2b, 0x8d, 0x31,
  0x5d, 0xd0, 0xda, 0x3a, 0xc9, 0x4b, 0x7b, 0x3b, 0xfc, 0x29, 0x7d, 0x3b,
  0x46, 0x06, 0x47, 0x3b, 0x37, 0x5d, 0xa5, 0x3b, 0x59, 0xdc, 0xab, 0x3b,
  0x48, 0x04, 0x86, 0x3b, 0xff, 0x67, 0x84, 0x3b, 0x2a, 0x00, 0x00, 0x00,
  0x53, 0x45, 0x41, 0x42, 0x41, 0x44, 0x5f, 0x4c, 0x6f, 0x77, 0x5f, 0x50,
  0x6f, 0x77, 0x65, 0x72, 0x5f, 0x4f, 0x70, 0x74, 0x69, 0x6d, 0x69, 0x7a,
  0x65, 0x64, 0x2f, 0x63, 0x6f, 0x6e, 0x76, 0x32, 0x64, 0x5f, 0x31, 0x2f,
  0x43, 0x6f, 0x6e, 0x76, 0x32, 0x44, 0x00, 0x00, 0x04, 0x00, 0x00, 0x00,
  0x0c, 0x00, 0x00, 0x00, 0x03, 0x00, 0x00, 0x00, 0x03, 0x00, 0x00, 0x00,
  0x06, 0x00, 0x00, 0x00, 0xf6, 0xfd, 0xff, 0xff, 0x00, 0x00, 0x00, 0x01,
  0x14, 0x00, 0x00, 0x00, 0xb4, 0x00, 0x00, 0x00, 0x05, 0x00, 0x00, 0x00,
  0x00, 0x00, 0x00, 0x02, 0xe8, 0x00, 0x00, 0x00, 0x84, 0xfe, 0xff, 0xff,
  0x08, 0x00, 0x00, 0x00, 0x68, 0x00, 0x00, 0x00, 0x0c, 0x00, 0x00, 0x00,
  0x00, 0x00, 0x00, 0x00, 0x00, 0x00, 0x00, 0x00, 0x00, 0x00, 0x00, 0x00,
  0x00, 0x00, 0x00, 0x00, 0x00, 0x00, 0x00, 0x00, 0x00, 0x00, 0x00, 0x00,
  0x00, 0x00, 0x00, 0x00, 0x00, 0x00, 0x00, 0x00, 0x00, 0x00, 0x00, 0x00,
  0x00, 0x00, 0x00, 0x00, 0x00, 0x00, 0x00, 0x00, 0x00, 0x00, 0x00, 0x00,
  0x00, 0x00, 0x00, 0x00, 0x00, 0x00, 0x00, 0x00, 0x00, 0x00, 0x00, 0x00,
  0x00, 0x00, 0x00, 0x00, 0x00, 0x00, 0x00, 0x00, 0x00, 0x00, 0x00, 0x00,
  0x00, 0x00, 0x00, 0x00, 0x00, 0x00, 0x00, 0x00, 0x00, 0x00, 0x00, 0x00,
  0x00, 0x00, 0x00, 0x00, 0x00, 0x00, 0x00, 0x00, 0x00, 0x00, 0x00, 0x00,
  0x0c, 0x00, 0x00, 0x00, 0x7c, 0x64, 0xfc, 0x37, 0x07, 0xe3, 0x26, 0x38,
  0xc9, 0xf0, 0x03, 0x38, 0x0f, 0x8a, 0x0d, 0x2e, 0x72, 0x63, 0x5b, 0x37,
  0xb4, 0xf4, 0xfb, 0x37, 0x28, 0xd4, 0xfd, 0x37, 0x0e, 0x8c, 0xc7, 0x37,
  0x5f, 0xcc, 0x25, 0x38, 0xde, 0x4f, 0x2c, 0x38, 0x5d, 0x5e, 0x06, 0x38,
  0xff, 0xc0, 0x04, 0x38, 0x3a, 0x00, 0x00, 0x00, 0x53, 0x45, 0x41, 0x42,
  0x41, 0x44, 0x5f, 0x4c, 0x6f, 0x77, 0x5f, 0x50, 0x6f, 0x77, 0x65, 0x72,
  0x5f, 0x4f, 0x70, 0x74, 0x69, 0x6d, 0x69, 0x7a, 0x65, 0x64, 0x2f, 0x63,
  0x6f, 0x6e, 0x76, 0x32, 0x64, 0x5f, 0x31, 0x2f, 0x42, 0x69, 0x61, 0x73,
  0x41, 0x64, 0x64, 0x2f, 0x52, 0x65, 0x61, 0x64, 0x56, 0x61, 0x72, 0x69,
  0x61, 0x62, 0x6c, 0x65, 0x4f, 0x70, 0x00, 0x00, 0x01, 0x00, 0x00, 0x00,
  0x0c, 0x00, 0x00, 0x00, 0xfe, 0xfe, 0xff, 0xff, 0x00, 0x00, 0x00, 0x01,
  0x14, 0x00, 0x00, 0x00, 0x30, 0x00, 0x00, 0x00, 0x04, 0x00, 0x00, 0x00,
  0x00, 0x00, 0x00, 0x09, 0x50, 0x00, 0x00, 0x00, 0x8c, 0xff, 0xff, 0xff,
  0x08, 0x00, 0x00, 0x00, 0x10, 0x00, 0x00, 0x00, 0x01, 0x00, 0x00, 0x00,
  0x00, 0x00, 0x00, 0x00, 0x00, 0x00, 0x00, 0x00, 0x01, 0x00, 0x00, 0x00,
  0x91, 0xbb, 0x4c, 0x3d, 0x27, 0x00, 0x00, 0x00, 0x53, 0x45, 0x41, 0x42,
  0x41, 0x44, 0x5f, 0x4c, 0x6f, 0x77, 0x5f, 0x50, 0x6f, 0x77, 0x65, 0x72,
  0x5f, 0x4f, 0x70, 0x74, 0x69, 0x6d, 0x69, 0x7a, 0x65, 0x64, 0x2f, 0x64,
  0x65, 0x6e, 0x73, 0x65, 0x2f, 0x4d, 0x61, 0x74, 0x4d, 0x75, 0x6c, 0x00,
  0x02, 0x00, 0x00, 0x00, 0x02, 0x00, 0x00, 0x00, 0x0c, 0x00, 0x00, 0x00,
  0x72, 0xff, 0xff, 0xff, 0x00, 0x00, 0x00, 0x01, 0x20, 0x00, 0x00, 0x00,
  0x3c, 0x00, 0x00, 0x00, 0x03, 0x00, 0x00, 0x00, 0x00, 0x00, 0x00, 0x02,
  0x6c, 0x00, 0x00, 0x00, 0x0c, 0x00, 0x0c, 0x00, 0x00, 0x00, 0x00, 0x00,
  0x08, 0x00, 0x04, 0x00, 0x0c, 0x00, 0x00, 0x00, 0x08, 0x00, 0x00, 0x00,
  0x10, 0x00, 0x00, 0x00, 0x01, 0x00, 0x00, 0x00, 0x00, 0x00, 0x00, 0x00,
  0x00, 0x00, 0x00, 0x00, 0x01, 0x00, 0x00, 0x00, 0x80, 0xb6, 0x36, 0x38,
  0x37, 0x00, 0x00, 0x00, 0x53, 0x45, 0x41, 0x42, 0x41, 0x44, 0x5f, 0x4c,
  0x6f, 0x77, 0x5f, 0x50, 0x6f, 0x77, 0x65, 0x72, 0x5f, 0x4f, 0x70, 0x74,
  0x69, 0x6d, 0x69, 0x7a, 0x65, 0x64, 0x2f, 0x64, 0x65, 0x6e, 0x73, 0x65,
  0x2f, 0x42, 0x69, 0x61, 0x73, 0x41, 0x64, 0x64, 0x2f, 0x52, 0x65, 0x61,
  0x64, 0x56, 0x61, 0x72, 0x69, 0x61, 0x62, 0x6c, 0x65, 0x4f, 0x70, 0x00,
  0x01, 0x00, 0x00, 0x00, 0x02, 0x00, 0x00, 0x00, 0x00, 0x00, 0x16, 0x00,
  0x1c, 0x00, 0x18, 0x00, 0x17, 0x00, 0x10, 0x00, 0x0c, 0x00, 0x08, 0x00,
  0x00, 0x00, 0x00, 0x00, 0x00, 0x00, 0x07, 0x00, 0x16, 0x00, 0x00, 0x00,
  0x00, 0x00, 0x00, 0x01, 0x14, 0x00, 0x00, 0x00, 0x14, 0x00, 0x00, 0x00,
  0x02, 0x00, 0x00, 0x00, 0x00, 0x00, 0x00, 0x02, 0x58, 0x00, 0x00, 0x00,
  0x5c, 0xff, 0xff, 0xff, 0x4a, 0x00, 0x00, 0x00, 0x53, 0x45, 0x41, 0x42,
  0x41, 0x44, 0x5f, 0x4c, 0x6f, 0x77, 0x5f, 0x50, 0x6f, 0x77, 0x65, 0x72,
  0x5f, 0x4f, 0x70, 0x74, 0x69, 0x6d, 0x69, 0x7a, 0x65, 0x64, 0x2f, 0x67,
  0x6c, 0x6f, 0x62, 0x61, 0x6c, 0x5f, 0x61, 0x76, 0x65, 0x72, 0x61, 0x67,
  0x65, 0x5f, 0x70, 0x6f, 0x6f, 0x6c, 0x69, 0x6e, 0x67, 0x32, 0x64, 0x2f,
  0x4d, 0x65, 0x61, 0x6e, 0x2f, 0x72, 0x65, 0x64, 0x75, 0x63, 0x74, 0x69,
  0x6f, 0x6e, 0x5f, 0x69, 0x6e, 0x64, 0x69, 0x63, 0x65, 0x73, 0x00, 0x00,
  0x01, 0x00, 0x00, 0x00, 0x02, 0x00, 0x00, 0x00, 0x00, 0x00, 0x16, 0x00,
  0x1c, 0x00, 0x18, 0x00, 0x00, 0x00, 0x14, 0x00, 0x10, 0x00, 0x0c, 0x00,
  0x00, 0x00, 0x00, 0x00, 0x08, 0x00, 0x07, 0x00, 0x16, 0x00, 0x00, 0x00,
  0x00, 0x00, 0x00, 0x01, 0x14, 0x00, 0x00, 0x00, 0x28, 0x00, 0x00, 0x00,
  0x28, 0x00, 0x00, 0x00, 0x01, 0x00, 0x00, 0x00, 0x40, 0x00, 0x00, 0x00,
  0x04, 0x00, 0x00, 0x00, 0xff, 0xff, 0xff, 0xff, 0xb8, 0x00, 0x00, 0x00,
  0x10, 0x00, 0x00, 0x00, 0x01, 0x00, 0x00, 0x00, 0x04, 0x00, 0x04, 0x00,
  0x04, 0x00, 0x00, 0x00, 0x19, 0x00, 0x00, 0x00, 0x73, 0x65, 0x72, 0x76,
  0x69, 0x6e, 0x67, 0x5f, 0x64, 0x65, 0x66, 0x61, 0x75, 0x6c, 0x74, 0x5f,
  0x69, 0x6e, 0x70, 0x75, 0x74, 0x5f, 0x31, 0x3a, 0x30, 0x00, 0x00, 0x00,
  0x04, 0x00, 0x00, 0x00, 0x01, 0x00, 0x00, 0x00, 0xb8, 0x00, 0x00, 0x00,
  0x10, 0x00, 0x00, 0x00, 0x01, 0x00, 0x00, 0x00, 0x08, 0x00, 0x00, 0x00,
  0xa8, 0x00, 0x00, 0x00, 0x88, 0x00, 0x00, 0x00, 0x68, 0x00, 0x00, 0x00,
  0x54, 0x00, 0x00, 0x00, 0x40, 0x00, 0x00, 0x00, 0x2c, 0x00, 0x00, 0x00,
  0x18, 0x00, 0x00, 0x00, 0x04, 0x00, 0x00, 0x00, 0xa0, 0xff, 0xff, 0xff,
  0x06, 0x00, 0x00, 0x00, 0x02, 0x00, 0x00, 0x00, 0x00, 0x00, 0x00, 0x06,
  0xb0, 0xff, 0xff, 0xff, 0x19, 0x00, 0x00, 0x00, 0x02, 0x00, 0x00, 0x00,
  0x00, 0x00, 0x00, 0x19, 0xc0, 0xff, 0xff, 0xff, 0x09, 0x00, 0x00, 0x00,
  0x04, 0x00, 0x00, 0x00, 0x00, 0x00, 0x00, 0x09, 0xd0, 0xff, 0xff, 0xff,
  0x28, 0x00, 0x00, 0x00, 0x02, 0x00, 0x00, 0x00, 0x00, 0x00, 0x00, 0x28,
  0xe0, 0xff, 0xff, 0xff, 0x11, 0x00, 0x00, 0x00, 0x02, 0x00, 0x00, 0x00,
  0x00, 0x00, 0x00, 0x11, 0xf0, 0xff, 0xff, 0xff, 0x03, 0x00, 0x00, 0x00,
  0x03, 0x00, 0x00, 0x00, 0x00, 0x00, 0x00, 0x03, 0x0c, 0x00, 0x10, 0x00,
  0x0f, 0x00, 0x00, 0x00, 0x08, 0x00, 0x04, 0x00, 0x0c, 0x00, 0x00, 0x00,
  0x12, 0x00, 0x00, 0x00, 0x02, 0x00, 0x00, 0x00, 0x00, 0x00, 0x00, 0x12,
  0x0c, 0x00, 0x0c, 0x00, 0x0b, 0x00, 0x00, 0x00, 0x00, 0x00, 0x04, 0x00,
  0x0c, 0x00, 0x00, 0x00, 0x72, 0x00, 0x00, 0x00, 0x00, 0x00, 0x00, 0x72
};

// Model size (number of bytes)
const unsigned int drongonet_nano_len = 5544;

#endif  // drongonet_NANO_H
