#ifndef DRONGONET_MICRO_H
#define DRONGONET_MICRO_H

// Model stored as unsigned char array in program memory
const unsigned char drongonet_micro[] = {
  0x20, 0x00, 0x00, 0x00, 0x54, 0x46, 0x4c, 0x33, 0x00, 0x00, 0x00, 0x00,
  0x14, 0x00, 0x20, 0x00, 0x1c, 0x00, 0x18, 0x00, 0x14, 0x00, 0x10, 0x00,
  0x0c, 0x00, 0x00, 0x00, 0x08, 0x00, 0x04, 0x00, 0x14, 0x00, 0x00, 0x00,
  0x1c, 0x00, 0x00, 0x00, 0x8c, 0x00, 0x00, 0x00, 0xe4, 0x00, 0x00, 0x00,
  0x74, 0x05, 0x00, 0x00, 0x84, 0x05, 0x00, 0x00, 0x00, 0x14, 0x00, 0x00,
  0x03, 0x00, 0x00, 0x00, 0x01, 0x00, 0x00, 0x00, 0x10, 0x00, 0x00, 0x00,
  0x00, 0x00, 0x0a, 0x00, 0x10, 0x00, 0x0c, 0x00, 0x08, 0x00, 0x04, 0x00,
  0x0a, 0x00, 0x00, 0x00, 0x0c, 0x00, 0x00, 0x00, 0x1c, 0x00, 0x00, 0x00,
  0x38, 0x00, 0x00, 0x00, 0x0f, 0x00, 0x00, 0x00, 0x73, 0x65, 0x72, 0x76,
  0x69, 0x6e, 0x67, 0x5f, 0x64, 0x65, 0x66, 0x61, 0x75, 0x6c, 0x74, 0x00,
  0x01, 0x00, 0x00, 0x00, 0x04, 0x00, 0x00, 0x00, 0x9c, 0xff, 0xff, 0xff,
  0x0f, 0x00, 0x00, 0x00, 0x04, 0x00, 0x00, 0x00, 0x05, 0x00, 0x00, 0x00,
  0x64, 0x65, 0x6e, 0x73, 0x65, 0x00, 0x00, 0x00, 0x01, 0x00, 0x00, 0x00,
  0x04, 0x00, 0x00, 0x00, 0x72, 0xfa, 0xff, 0xff, 0x04, 0x00, 0x00, 0x00,
  0x07, 0x00, 0x00, 0x00, 0x69, 0x6e, 0x70, 0x75, 0x74, 0x5f, 0x31, 0x00,
  0x02, 0x00, 0x00, 0x00, 0x34, 0x00, 0x00, 0x00, 0x04, 0x00, 0x00, 0x00,
  0xdc, 0xff, 0xff, 0xff, 0x12, 0x00, 0x00, 0x00, 0x04, 0x00, 0x00, 0x00,
  0x13, 0x00, 0x00, 0x00, 0x43, 0x4f, 0x4e, 0x56, 0x45, 0x52, 0x53, 0x49,
  0x4f, 0x4e, 0x5f, 0x4d, 0x45, 0x54, 0x41, 0x44, 0x41, 0x54, 0x41, 0x00,
  0x08, 0x00, 0x0c, 0x00, 0x08, 0x00, 0x04, 0x00, 0x08, 0x00, 0x00, 0x00,
  0x11, 0x00, 0x00, 0x00, 0x04, 0x00, 0x00, 0x00, 0x13, 0x00, 0x00, 0x00,
  0x6d, 0x69, 0x6e, 0x5f, 0x72, 0x75, 0x6e, 0x74, 0x69, 0x6d, 0x65, 0x5f,
  0x76, 0x65, 0x72, 0x73, 0x69, 0x6f, 0x6e, 0x00, 0x13, 0x00, 0x00, 0x00,
  0x8c, 0x04, 0x00, 0x00, 0x84, 0x04, 0x00, 0x00, 0x6c, 0x04, 0x00, 0x00,
  0x54, 0x04, 0x00, 0x00, 0x2c, 0x04, 0x00, 0x00, 0xec, 0x03, 0x00, 0x00,
  0x54, 0x01, 0x00, 0x00, 0x2c, 0x01, 0x00, 0x00, 0xe4, 0x00, 0x00, 0x00,
  0xc4, 0x00, 0x00, 0x00, 0xbc, 0x00, 0x00, 0x00, 0xb4, 0x00, 0x00, 0x00,
  0xac, 0x00, 0x00, 0x00, 0xa4, 0x00, 0x00, 0x00, 0x9c, 0x00, 0x00, 0x00,
  0x94, 0x00, 0x00, 0x00, 0x8c, 0x00, 0x00, 0x00, 0x6c, 0x00, 0x00, 0x00,
  0x04, 0x00, 0x00, 0x00, 0x32, 0xfb, 0xff, 0xff, 0x04, 0x00, 0x00, 0x00,
  0x58, 0x00, 0x00, 0x00, 0x0c, 0x00, 0x00, 0x00, 0x08, 0x00, 0x0e, 0x00,
  0x08, 0x00, 0x04, 0x00, 0x08, 0x00, 0x00, 0x00, 0x10, 0x00, 0x00, 0x00,
  0x28, 0x00, 0x00, 0x00, 0x00, 0x00, 0x06, 0x00, 0x08, 0x00, 0x04, 0x00,
  0x06, 0x00, 0x00, 0x00, 0x04, 0x00, 0x00, 0x00, 0x01, 0x00, 0x00, 0x00,
  0xeb, 0x03, 0x00, 0x00, 0x00, 0x00, 0x0a, 0x00, 0x10, 0x00, 0x0c, 0x00,
  0x08, 0x00, 0x04, 0x00, 0x0a, 0x00, 0x00, 0x00, 0x02, 0x00, 0x00, 0x00,
  0x02, 0x00, 0x00, 0x00, 0x04, 0x00, 0x00, 0x00, 0x06, 0x00, 0x00, 0x00,
  0x32, 0x2e, 0x31, 0x35, 0x2e, 0x30, 0x00, 0x00, 0x96, 0xfb, 0xff, 0xff,
  0x04, 0x00, 0x00, 0x00, 0x10, 0x00, 0x00, 0x00, 0x31, 0x2e, 0x31, 0x34,
  0x2e, 0x30, 0x00, 0x00, 0x00, 0x00, 0x00, 0x00, 0x00, 0x00, 0x00, 0x00,
  0xc0, 0xee, 0xff, 0xff, 0xc4, 0xee, 0xff, 0xff, 0xc8, 0xee, 0xff, 0xff,
  0xcc, 0xee, 0xff, 0xff, 0xd0, 0xee, 0xff, 0xff, 0xd4, 0xee, 0xff, 0xff,
  0xd8, 0xee, 0xff, 0xff, 0xce, 0xfb, 0xff, 0xff, 0x04, 0x00, 0x00, 0x00,
  0x10, 0x00, 0x00, 0x00, 0x7e, 0x57, 0x75, 0x73, 0x7f, 0x7c, 0x7f, 0x75,
  0x7f, 0x7f, 0x7f, 0x7f, 0x7f, 0x7f, 0x7c, 0x77, 0xea, 0xfb, 0xff, 0xff,
  0x04, 0x00, 0x00, 0x00, 0x36, 0x00, 0x00, 0x00, 0xed, 0x7f, 0x24, 0xeb,
  0x64, 0x08, 0xd4, 0x1a, 0xc9, 0xe6, 0x95, 0x53, 0xbe, 0x9e, 0x60, 0xe4,
  0xfb, 0x7f, 0xb5, 0x4c, 0x03, 0x81, 0x08, 0xba, 0x02, 0x7d, 0x4b, 0x75,
  0x4a, 0x02, 0x7f, 0x44, 0x04, 0x54, 0x1c, 0xfd, 0x4b, 0xab, 0x0a, 0x45,
  0x81, 0xe9, 0x3d, 0xac, 0x02, 0x00, 0x00, 0x00, 0x00, 0x00, 0x00, 0x00,
  0x00, 0x00, 0x00, 0x00, 0x2e, 0xfc, 0xff, 0xff, 0x04, 0x00, 0x00, 0x00,
  0x18, 0x00, 0x00, 0x00, 0xeb, 0xfb, 0xff, 0xff, 0xd3, 0x0f, 0x00, 0x00,
  0x6d, 0xdc, 0xff, 0xff, 0x3e, 0x2b, 0xff, 0xff, 0x77, 0x20, 0x00, 0x00,
  0x40, 0x1f, 0x3d, 0xf9, 0x52, 0xfc, 0xff, 0xff, 0x04, 0x00, 0x00, 0x00,
  0x88, 0x02, 0x00, 0x00, 0x11, 0x1d, 0x0c, 0xd7, 0x03, 0x00, 0x8d, 0x1b,
  0x00, 0xd3, 0x23, 0x00, 0x01, 0xd3, 0xeb, 0x04, 0x07, 0x00, 0xde, 0x26,
  0x2b, 0xda, 0xfa, 0x00, 0x81, 0x14, 0x10, 0xdf, 0x05, 0x00, 0xe5, 0xe3,
  0xef, 0x06, 0xfa, 0x00, 0x26, 0x21, 0x49, 0x08, 0xc6, 0x00, 0xce, 0x09,
  0xfb, 0x09, 0xd1, 0x00, 0x1d, 0xe5, 0xef, 0x28, 0xcd, 0x00, 0xe0, 0x1c,
  0x48, 0x13, 0x5f, 0x00, 0x28, 0xea, 0x2c, 0xbb, 0x2b, 0x00, 0xa9, 0x2c,
  0xe7, 0x3d, 0x3e, 0x00, 0xf5, 0xfa, 0x43, 0x27, 0x3a, 0x00, 0x36, 0xd9,
  0x27, 0xdb, 0x10, 0x00, 0xf2, 0x31, 0xec, 0x5f, 0x0e, 0x00, 0xfd, 0xfe,
  0x33, 0x36, 0x5f, 0x00, 0x60, 0xeb, 0x38, 0xe1, 0x19, 0x00, 0x0d, 0x2c,
  0xe3, 0x7f, 0x2c, 0x00, 0xf0, 0x19, 0xe9, 0xf7, 0x0c, 0x00, 0xc9, 0x13,
  0x01, 0xfb, 0xd7, 0x00, 0x56, 0x36, 0xb8, 0x13, 0xf5, 0x00, 0xed, 0xf6,
  0xe4, 0x02, 0x1e, 0x00, 0xb7, 0x01, 0x0b, 0xfa, 0xda, 0x00, 0x4f, 0x05,
  0x95, 0xf8, 0xf3, 0x00, 0xfc, 0xe7, 0xed, 0x1b, 0x26, 0x00, 0xd0, 0xf1,
  0x18, 0xf1, 0xdf, 0x00, 0x20, 0xd4, 0x81, 0xdb, 0x07, 0x00, 0xfd, 0x63,
  0x05, 0xd8, 0xe0, 0x00, 0x5a, 0x51, 0x18, 0x27, 0x32, 0x00, 0xc4, 0xfd,
  0x08, 0x44, 0x7f, 0x00, 0xff, 0xfb, 0xee, 0xe9, 0xca, 0x00, 0x1d, 0xe4,
  0xb6, 0xf8, 0x04, 0x00, 0xcd, 0xf7, 0x00, 0x0a, 0x14, 0x00, 0x24, 0x9f,
  0xef, 0x07, 0xd1, 0x00, 0xf2, 0xc5, 0x9f, 0xaf, 0xf7, 0x00, 0x07, 0x0e,
  0x12, 0xd3, 0xc7, 0x00, 0x56, 0x8d, 0xf9, 0x37, 0xcb, 0x00, 0x64, 0xbd,
  0x08, 0x2b, 0x81, 0x00, 0x56, 0xca, 0xd1, 0x0f, 0x99, 0x00, 0x1f, 0xd4,
  0xfd, 0xf1, 0x15, 0x00, 0x18, 0x02, 0x06, 0xff, 0x1c, 0x00, 0x0d, 0xec,
  0xe2, 0xe8, 0x1b, 0x00, 0xdb, 0x02, 0xf4, 0xac, 0x67, 0x00, 0xb9, 0x45,
  0xfc, 0xcf, 0x6a, 0x00, 0xaa, 0x10, 0xd2, 0xd6, 0x63, 0x00, 0xc7, 0xb3,
  0xf6, 0xd9, 0x08, 0x00, 0xea, 0x4b, 0xf5, 0xd2, 0xb3, 0x00, 0x4e, 0x3e,
  0x0d, 0x2d, 0x04, 0x00, 0xef, 0xee, 0xe5, 0xea, 0x05, 0x00, 0xea, 0xf4,
  0xf5, 0xff, 0x0b, 0x00, 0xef, 0xed, 0xe2, 0x0d, 0xff, 0x00, 0x3f, 0x50,
  0x1f, 0x2b, 0x04, 0x00, 0x19, 0xbe, 0x14, 0x3a, 0x7f, 0x00, 0xbc, 0xdd,
  0xf3, 0xe9, 0x1e, 0x00, 0xfe, 0xb9, 0x1c, 0x08, 0xff, 0x00, 0xc4, 0xa1,
  0x10, 0x0f, 0xdb, 0x00, 0x0b, 0x0e, 0x96, 0x86, 0xf9, 0x00, 0xea, 0xbe,
  0x0d, 0xf5, 0xf6, 0x00, 0xc2, 0xdd, 0xf9, 0x0e, 0xcf, 0x00, 0x48, 0x11,
  0x9e, 0xb5, 0x2f, 0x00, 0xe5, 0x01, 0x0d, 0xcf, 0xf3, 0x00, 0xda, 0x57,
  0x0d, 0x1a, 0xc4, 0x00, 0x7a, 0xf7, 0xb2, 0x2a, 0x7f, 0x00, 0x76, 0xe0,
  0xf9, 0xe9, 0xd0, 0x00, 0x43, 0x08, 0x38, 0xe6, 0xd5, 0x00, 0x46, 0xd7,
  0x0a, 0xf2, 0xf0, 0x00, 0xf5, 0xf8, 0xeb, 0xda, 0x0f, 0x00, 0xa3, 0x17,
  0x34, 0xdc, 0x20, 0x00, 0xc9, 0xde, 0x0f, 0xdb, 0x1e, 0x00, 0xda, 0x1f,
  0x19, 0xd3, 0x06, 0x00, 0x81, 0x31, 0x62, 0xd7, 0x1d, 0x00, 0xab, 0x08,
  0x26, 0xd2, 0x11, 0x00, 0xec, 0xf4, 0x08, 0xdb, 0xf3, 0x00, 0xdf, 0x36,
  0xdd, 0xf5, 0x0c, 0x00, 0x5a, 0x4d, 0xcc, 0x35, 0x10, 0x00, 0xea, 0xdc,
  0x01, 0xf1, 0xf5, 0x00, 0xd8, 0xf9, 0xe2, 0xfa, 0x07, 0x00, 0x2f, 0xfb,
  0x95, 0x0b, 0xf4, 0x00, 0x07, 0xe0, 0x0e, 0x0f, 0xfa, 0x00, 0xf1, 0xc0,
  0xf4, 0x02, 0x1a, 0x00, 0xf3, 0xc1, 0x81, 0xe5, 0xf3, 0x00, 0xef, 0xe1,
  0x0d, 0xc3, 0xe7, 0x00, 0xd7, 0x1c, 0xc9, 0x03, 0xf2, 0x00, 0x50, 0x45,
  0xb3, 0x2f, 0x10, 0x00, 0xeb, 0xc3, 0x09, 0xde, 0xf1, 0x00, 0xd5, 0xf3,
  0xd0, 0x0b, 0xee, 0x00, 0x33, 0xf9, 0x8a, 0x0f, 0x00, 0x00, 0xf7, 0xb8,
  0x14, 0xef, 0xef, 0x00, 0xef, 0xce, 0xdc, 0x0a, 0xf0, 0x00, 0x07, 0xbf,
  0x81, 0xef, 0xfb, 0x00, 0xed, 0x12, 0xf3, 0xab, 0x48, 0x00, 0x0a, 0xac,
  0x08, 0xe0, 0x94, 0x00, 0x05, 0x00, 0xf6, 0x00, 0xc9, 0x00, 0x09, 0x02,
  0xf0, 0xc7, 0x77, 0x00, 0x04, 0xa6, 0x09, 0xea, 0x8d, 0x00, 0xfc, 0xf8,
  0xf4, 0x07, 0xc9, 0x00, 0x25, 0xfa, 0xf2, 0xe1, 0x7f, 0x00, 0xfb, 0x9b,
  0x09, 0xf4, 0x8a, 0x00, 0xf6, 0xf9, 0xf3, 0x0c, 0xc1, 0x00, 0xbb, 0x24,
  0x11, 0x1a, 0x2a, 0x00, 0x07, 0x0d, 0xc5, 0xf5, 0x81, 0x00, 0x10, 0xfc,
  0xc7, 0xd4, 0xb8, 0x00, 0xc1, 0x12, 0x16, 0x20, 0x3f, 0x00, 0xe8, 0x0f,
  0xcc, 0x10, 0x89, 0x00, 0x38, 0x0c, 0xc9, 0xca, 0xa6, 0x00, 0xb4, 0x02,
  0x03, 0x0c, 0x54, 0x00, 0xdd, 0x26, 0xc8, 0xf4, 0xa4, 0x00, 0x3e, 0x0c,
  0xca, 0xbf, 0xb4, 0x00, 0xe6, 0xfe, 0xff, 0xff, 0x04, 0x00, 0x00, 0x00,
  0x30, 0x00, 0x00, 0x00, 0x85, 0x18, 0x00, 0x00, 0x13, 0x57, 0xff, 0xff,
  0xcd, 0x07, 0x00, 0x00, 0x53, 0xe2, 0xff, 0xff, 0x7d, 0xd6, 0xff, 0xff,
  0x31, 0xec, 0xff, 0xff, 0x35, 0x0b, 0x00, 0x00, 0x0d, 0x02, 0x00, 0x00,
  0x63, 0x03, 0x00, 0x00, 0x51, 0x1a, 0x00, 0x00, 0xaf, 0xfb, 0xff, 0xff,
  0x57, 0x2f, 0x00, 0x00, 0x22, 0xff, 0xff, 0xff, 0x04, 0x00, 0x00, 0x00,
  0x18, 0x00, 0x00, 0x00, 0x4d, 0x1a, 0xd1, 0x9b, 0x30, 0x81, 0xc1, 0x6e,
  0xb0, 0xbe, 0xb3, 0xd7, 0xb9, 0xde, 0x34, 0x5c, 0xc1, 0x7f, 0x45, 0x90,
  0x50, 0x40, 0x54, 0x1e, 0x46, 0xff, 0xff, 0xff, 0x04, 0x00, 0x00, 0x00,
  0x08, 0x00, 0x00, 0x00, 0x82, 0x15, 0x00, 0x00, 0x7e, 0xea, 0xff, 0xff,
  0x5a, 0xff, 0xff, 0xff, 0x04, 0x00, 0x00, 0x00, 0x08, 0x00, 0x00, 0x00,
  0x01, 0x00, 0x00, 0x00, 0x02, 0x00, 0x00, 0x00, 0x7c, 0xf2, 0xff, 0xff,
  0x80, 0xf2, 0xff, 0xff, 0x0f, 0x00, 0x00, 0x00, 0x4d, 0x4c, 0x49, 0x52,
  0x20, 0x43, 0x6f, 0x6e, 0x76, 0x65, 0x72, 0x74, 0x65, 0x64, 0x2e, 0x00,
  0x01, 0x00, 0x00, 0x00, 0x14, 0x00, 0x00, 0x00, 0x00, 0x00, 0x0e, 0x00,
  0x18, 0x00, 0x14, 0x00, 0x10, 0x00, 0x0c, 0x00, 0x08, 0x00, 0x04, 0x00,
  0x0e, 0x00, 0x00, 0x00, 0x14, 0x00, 0x00, 0x00, 0x1c, 0x00, 0x00, 0x00,
  0xfc, 0x01, 0x00, 0x00, 0x00, 0x02, 0x00, 0x00, 0x04, 0x02, 0x00, 0x00,
  0x04, 0x00, 0x00, 0x00, 0x6d, 0x61, 0x69, 0x6e, 0x00, 0x00, 0x00, 0x00,
  0x07, 0x00, 0x00, 0x00, 0xb4, 0x01, 0x00, 0x00, 0x54, 0x01, 0x00, 0x00,
  0xf0, 0x00, 0x00, 0x00, 0xac, 0x00, 0x00, 0x00, 0x78, 0x00, 0x00, 0x00,
  0x40, 0x00, 0x00, 0x00, 0x04, 0x00, 0x00, 0x00, 0xd2, 0xfe, 0xff, 0xff,
  0x1c, 0x00, 0x00, 0x00, 0x00, 0x00, 0x00, 0x09, 0x1c, 0x00, 0x00, 0x00,
  0x20, 0x00, 0x00, 0x00, 0x05, 0x00, 0x00, 0x00, 0x00, 0x00, 0x06, 0x00,
  0x08, 0x00, 0x04, 0x00, 0x06, 0x00, 0x00, 0x00, 0x00, 0x00, 0x80, 0x3f,
  0x01, 0x00, 0x00, 0x00, 0x0f, 0x00, 0x00, 0x00, 0x01, 0x00, 0x00, 0x00,
  0x0e, 0x00, 0x00, 0x00, 0x0a, 0xff, 0xff, 0xff, 0x14, 0x00, 0x00, 0x00,
  0x00, 0x00, 0x00, 0x08, 0x10, 0x00, 0x00, 0x00, 0x14, 0x00, 0x00, 0x00,
  0x04, 0x00, 0x00, 0x00, 0x44, 0xf3, 0xff, 0xff, 0x01, 0x00, 0x00, 0x00,
  0x0e, 0x00, 0x00, 0x00, 0x03, 0x00, 0x00, 0x00, 0x0d, 0x00, 0x00, 0x00,
  0x03, 0x00, 0x00, 0x00, 0x02, 0x00, 0x00, 0x00, 0x3e, 0xff, 0xff, 0xff,
  0x14, 0x00, 0x00, 0x00, 0x00, 0x00, 0x00, 0x1b, 0x10, 0x00, 0x00, 0x00,
  0x14, 0x00, 0x00, 0x00, 0x03, 0x00, 0x00, 0x00, 0x78, 0xf3, 0xff, 0xff,
  0x01, 0x00, 0x00, 0x00, 0x0d, 0x00, 0x00, 0x00, 0x02, 0x00, 0x00, 0x00,
  0x0c, 0x00, 0x00, 0x00, 0x01, 0x00, 0x00, 0x00, 0x6e, 0xff, 0xff, 0xff,
  0x14, 0x00, 0x00, 0x00, 0x00, 0x00, 0x00, 0x01, 0x1c, 0x00, 0x00, 0x00,
  0x20, 0x00, 0x00, 0x00, 0x01, 0x00, 0x00, 0x00, 0x60, 0xff, 0xff, 0xff,
  0x00, 0x00, 0x00, 0x01, 0x01, 0x00, 0x00, 0x00, 0x01, 0x00, 0x00, 0x00,
  0x01, 0x00, 0x00, 0x00, 0x0c, 0x00, 0x00, 0x00, 0x03, 0x00, 0x00, 0x00,
  0x0b, 0x00, 0x00, 0x00, 0x05, 0x00, 0x00, 0x00, 0x04, 0x00, 0x00, 0x00,
  0xae, 0xff, 0xff, 0xff, 0x24, 0x00, 0x00, 0x00, 0x00, 0x00, 0x00, 0x05,
  0x34, 0x00, 0x00, 0x00, 0x38, 0x00, 0x00, 0x00, 0x02, 0x00, 0x00, 0x00,
  0x00, 0x00, 0x0e, 0x00, 0x18, 0x00, 0x17, 0x00, 0x10, 0x00, 0x0c, 0x00,
  0x08, 0x00, 0x04, 0x00, 0x0e, 0x00, 0x00, 0x00, 0x02, 0x00, 0x00, 0x00,
  0x02, 0x00, 0x00, 0x00, 0x02, 0x00, 0x00, 0x00, 0x02, 0x00, 0x00, 0x00,
  0x00, 0x00, 0x00, 0x01, 0x01, 0x00, 0x00, 0x00, 0x0b, 0x00, 0x00, 0x00,
  0x01, 0x00, 0x00, 0x00, 0x0a, 0x00, 0x00, 0x00, 0x00, 0x00, 0x0e, 0x00,
  0x18, 0x00, 0x14, 0x00, 0x10, 0x00, 0x0c, 0x00, 0x0b, 0x00, 0x04, 0x00,
  0x0e, 0x00, 0x00, 0x00, 0x20, 0x00, 0x00, 0x00, 0x00, 0x00, 0x00, 0x01,
  0x28, 0x00, 0x00, 0x00, 0x2c, 0x00, 0x00, 0x00, 0x01, 0x00, 0x00, 0x00,
  0x0c, 0x00, 0x10, 0x00, 0x00, 0x00, 0x0c, 0x00, 0x08, 0x00, 0x07, 0x00,
  0x0c, 0x00, 0x00, 0x00, 0x00, 0x00, 0x00, 0x01, 0x01, 0x00, 0x00, 0x00,
  0x01, 0x00, 0x00, 0x00, 0x01, 0x00, 0x00, 0x00, 0x0a, 0x00, 0x00, 0x00,
  0x03, 0x00, 0x00, 0x00, 0x09, 0x00, 0x00, 0x00, 0x07, 0x00, 0x00, 0x00,
  0x06, 0x00, 0x00, 0x00, 0x00, 0x00, 0x0e, 0x00, 0x14, 0x00, 0x00, 0x00,
  0x10, 0x00, 0x0c, 0x00, 0x0b, 0x00, 0x04, 0x00, 0x0e, 0x00, 0x00, 0x00,
  0x10, 0x00, 0x00, 0x00, 0x00, 0x00, 0x00, 0x15, 0x0c, 0x00, 0x00, 0x00,
  0x10, 0x00, 0x00, 0x00, 0xa0, 0xf4, 0xff, 0xff, 0x01, 0x00, 0x00, 0x00,
  0x09, 0x00, 0x00, 0x00, 0x02, 0x00, 0x00, 0x00, 0x00, 0x00, 0x00, 0x00,
  0x08, 0x00, 0x00, 0x00, 0x01, 0x00, 0x00, 0x00, 0x0f, 0x00, 0x00, 0x00,
  0x01, 0x00, 0x00, 0x00, 0x00, 0x00, 0x00, 0x00, 0x10, 0x00, 0x00, 0x00,
  0xb4, 0x0b, 0x00, 0x00, 0x14, 0x0b, 0x00, 0x00, 0x70, 0x0a, 0x00, 0x00,
  0xec, 0x09, 0x00, 0x00, 0xd8, 0x08, 0x00, 0x00, 0xc4, 0x07, 0x00, 0x00,
  0xf8, 0x06, 0x00, 0x00, 0x34, 0x06, 0x00, 0x00, 0xd0, 0x05, 0x00, 0x00,
  0x24, 0x05, 0x00, 0x00, 0xe0, 0x03, 0x00, 0x00, 0x34, 0x03, 0x00, 0x00,
  0xe8, 0x01, 0x00, 0x00, 0x44, 0x01, 0x00, 0x00, 0x80, 0x00, 0x00, 0x00,
  0x04, 0x00, 0x00, 0x00, 0xa2, 0xf4, 0xff, 0xff, 0x00, 0x00, 0x00, 0x01,
  0x18, 0x00, 0x00, 0x00, 0x20, 0x00, 0x00, 0x00, 0x3c, 0x00, 0x00, 0x00,
  0x10, 0x00, 0x00, 0x00, 0x00, 0x00, 0x00, 0x09, 0x50, 0x00, 0x00, 0x00,
  0x02, 0x00, 0x00, 0x00, 0xff, 0xff, 0xff, 0xff, 0x02, 0x00, 0x00, 0x00,
  0x84, 0xf4, 0xff, 0xff, 0x08, 0x00, 0x00, 0x00, 0x10, 0x00, 0x00, 0x00,
  0x01, 0x00, 0x00, 0x00, 0x80, 0xff, 0xff, 0xff, 0xff, 0xff, 0xff, 0xff,
  0x01, 0x00, 0x00, 0x00, 0x00, 0x00, 0x80, 0x3b, 0x19, 0x00, 0x00, 0x00,
  0x53, 0x74, 0x61, 0x74, 0x65, 0x66, 0x75, 0x6c, 0x50, 0x61, 0x72, 0x74,
  0x69, 0x74, 0x69, 0x6f, 0x6e, 0x65, 0x64, 0x43, 0x61, 0x6c, 0x6c, 0x3a,
  0x30, 0x00, 0x00, 0x00, 0x02, 0x00, 0x00, 0x00, 0x01, 0x00, 0x00, 0x00,
  0x02, 0x00, 0x00, 0x00, 0x1a, 0xf5, 0xff, 0xff, 0x00, 0x00, 0x00, 0x01,
  0x18, 0x00, 0x00, 0x00, 0x20, 0x00, 0x00, 0x00, 0x40, 0x00, 0x00, 0x00,
  0x0f, 0x00, 0x00, 0x00, 0x00, 0x00, 0x00, 0x09, 0x98, 0x00, 0x00, 0x00,
  0x02, 0x00, 0x00, 0x00, 0xff, 0xff, 0xff, 0xff, 0x02, 0x00, 0x00, 0x00,
  0xfc, 0xf4, 0xff, 0xff, 0x08, 0x00, 0x00, 0x00, 0x14, 0x00, 0x00, 0x00,
  0x01, 0x00, 0x00, 0x00, 0x04, 0x00, 0x00, 0x00, 0x00, 0x00, 0x00, 0x00,
  0x00, 0x00, 0x00, 0x00, 0x01, 0x00, 0x00, 0x00, 0x9a, 0x2d, 0x83, 0x3c,
  0x5e, 0x00, 0x00, 0x00, 0x53, 0x45, 0x41, 0x42, 0x41, 0x44, 0x5f, 0x4c,
  0x6f, 0x77, 0x5f, 0x50, 0x6f, 0x77, 0x65, 0x72, 0x5f, 0x4f, 0x70, 0x74,
  0x69, 0x6d, 0x69, 0x7a, 0x65, 0x64, 0x5f, 0x66, 0x6f, 0x6c, 0x64, 0x65,
  0x64, 0x2f, 0x64, 0x65, 0x6e, 0x73, 0x65, 0x2f, 0x4d, 0x61, 0x74, 0x4d,
  0x75, 0x6c, 0x3b, 0x53, 0x45, 0x41, 0x42, 0x41, 0x44, 0x5f, 0x4c, 0x6f,
  0x77, 0x5f, 0x50, 0x6f, 0x77, 0x65, 0x72, 0x5f, 0x4f, 0x70, 0x74, 0x69,
  0x6d, 0x69, 0x7a, 0x65, 0x64, 0x5f, 0x66, 0x6f, 0x6c, 0x64, 0x65, 0x64,
  0x2f, 0x64, 0x65, 0x6e, 0x73, 0x65, 0x2f, 0x42, 0x69, 0x61, 0x73, 0x41,
  0x64, 0x64, 0x00, 0x00, 0x02, 0x00, 0x00, 0x00, 0x01, 0x00, 0x00, 0x00,
  0x02, 0x00, 0x00, 0x00, 0xda, 0xf5, 0xff, 0xff, 0x00, 0x00, 0x00, 0x01,
  0x18, 0x00, 0x00, 0x00, 0x20, 0x00, 0x00, 0x00, 0x40, 0x00, 0x00, 0x00,
  0x0e, 0x00, 0x00, 0x00, 0x00, 0x00, 0x00, 0x09, 0x78, 0x00, 0x00, 0x00,
  0x02, 0x00, 0x00, 0x00, 0xff, 0xff, 0xff, 0xff, 0x0c, 0x00, 0x00, 0x00,
  0xbc, 0xf5, 0xff, 0xff, 0x08, 0x00, 0x00, 0x00, 0x14, 0x00, 0x00, 0x00,
  0x01, 0x00, 0x00, 0x00, 0x80, 0xff, 0xff, 0xff, 0xff, 0xff, 0xff, 0xff,
  0x00, 0x00, 0x00, 0x00, 0x01, 0x00, 0x00, 0x00, 0x7e, 0xcd, 0x57, 0x3a,
  0x3f, 0x00, 0x00, 0x00, 0x53, 0x45, 0x41, 0x42, 0x41, 0x44, 0x5f, 0x4c,
  0x6f, 0x77, 0x5f, 0x50, 0x6f, 0x77, 0x65, 0x72, 0x5f, 0x4f, 0x70, 0x74,
  0x69, 0x6d, 0x69, 0x7a, 0x65, 0x64, 0x5f, 0x66, 0x6f, 0x6c, 0x64, 0x65,
  0x64, 0x2f, 0x67, 0x6c, 0x6f, 0x62, 0x61, 0x6c, 0x5f, 0x61, 0x76, 0x65,
  0x72, 0x61, 0x67, 0x65, 0x5f, 0x70, 0x6f, 0x6f, 0x6c, 0x69, 0x6e, 0x67,
  0x32, 0x64, 0x2f, 0x4d, 0x65, 0x61, 0x6e, 0x00, 0x02, 0x00, 0x00, 0x00,
  0x01, 0x00, 0x00, 0x00, 0x0c, 0x00, 0x00, 0x00, 0x7a, 0xf6, 0xff, 0xff,
  0x00, 0x00, 0x00, 0x01, 0x18, 0x00, 0x00, 0x00, 0x28, 0x00, 0x00, 0x00,
  0x48, 0x00, 0x00, 0x00, 0x0d, 0x00, 0x00, 0x00, 0x00, 0x00, 0x00, 0x09,
  0x18, 0x01, 0x00, 0x00, 0x04, 0x00, 0x00, 0x00, 0xff, 0xff, 0xff, 0xff,
  0x5c, 0x00, 0x00, 0x00, 0x08, 0x00, 0x00, 0x00, 0x0c, 0x00, 0x00, 0x00,
  0x64, 0xf6, 0xff, 0xff, 0x08, 0x00, 0x00, 0x00, 0x14, 0x00, 0x00, 0x00,
  0x01, 0x00, 0x00, 0x00, 0x80, 0xff, 0xff, 0xff, 0xff, 0xff, 0xff, 0xff,
  0x00, 0x00, 0x00, 0x00, 0x01, 0x00, 0x00, 0x00, 0x32, 0xc9, 0xf0, 0x3b,
  0xd6, 0x00, 0x00, 0x00, 0x53, 0x45, 0x41, 0x42, 0x41, 0x44, 0x5f, 0x4c,
  0x6f, 0x77, 0x5f, 0x50, 0x6f, 0x77, 0x65, 0x72, 0x5f, 0x4f, 0x70, 0x74,
  0x69, 0x6d, 0x69, 0x7a, 0x65, 0x64, 0x5f, 0x66, 0x6f, 0x6c, 0x64, 0x65,
  0x64, 0x2f, 0x63, 0x6f, 0x6e, 0x76, 0x32, 0x64, 0x5f, 0x31, 0x2f, 0x52,
  0x65, 0x6c, 0x75, 0x3b, 0x53, 0x45, 0x41, 0x42, 0x41, 0x44, 0x5f, 0x4c,
  0x6f, 0x77, 0x5f, 0x50, 0x6f, 0x77, 0x65, 0x72, 0x5f, 0x4f, 0x70, 0x74,
  0x69, 0x6d, 0x69, 0x7a, 0x65, 0x64, 0x5f, 0x66, 0x6f, 0x6c, 0x64, 0x65,
  0x64, 0x2f, 0x63, 0x6f, 0x6e, 0x76, 0x32, 0x64, 0x5f, 0x31, 0x2f, 0x42,
  0x69, 0x61, 0x73, 0x41, 0x64, 0x64, 0x3b, 0x53, 0x45, 0x41, 0x42, 0x41,
  0x44, 0x5f, 0x4c, 0x6f, 0x77, 0x5f, 0x50, 0x6f, 0x77, 0x65, 0x72, 0x5f,
  0x4f, 0x70, 0x74, 0x69, 0x6d, 0x69, 0x7a, 0x65, 0x64, 0x5f, 0x66, 0x6f,
  0x6c, 0x64, 0x65, 0x64, 0x2f, 0x63, 0x6f, 0x6e, 0x76, 0x32, 0x64, 0x5f,
  0x31, 0x2f, 0x43, 0x6f, 0x6e, 0x76, 0x32, 0x44, 0x3b, 0x53, 0x45, 0x41,
  0x42, 0x41, 0x44, 0x5f, 0x4c, 0x6f, 0x77, 0x5f, 0x50, 0x6f, 0x77, 0x65,
  0x72, 0x5f, 0x4f, 0x70, 0x74, 0x69, 0x6d, 0x69, 0x7a, 0x65, 0x64, 0x5f,
  0x66, 0x6f, 0x6c, 0x64, 0x65, 0x64, 0x2f, 0x63, 0x6f, 0x6e, 0x76, 0x32,
  0x64, 0x5f, 0x31, 0x2f, 0x42, 0x69, 0x61, 0x73, 0x41, 0x64, 0x64, 0x2f,
  0x52, 0x65, 0x61, 0x64, 0x56, 0x61, 0x72, 0x69, 0x61, 0x62, 0x6c, 0x65,
  0x4f, 0x70, 0x00, 0x00, 0x04, 0x00, 0x00, 0x00, 0x01, 0x00, 0x00, 0x00,
  0x5c, 0x00, 0x00, 0x00, 0x08, 0x00, 0x00, 0x00, 0x0c, 0x00, 0x00, 0x00,
  0xc2, 0xf7, 0xff, 0xff, 0x00, 0x00, 0x00, 0x01, 0x18, 0x00, 0x00, 0x00,
  0x28, 0x00, 0x00, 0x00, 0x48, 0x00, 0x00, 0x00, 0x0c, 0x00, 0x00, 0x00,
  0x00, 0x00, 0x00, 0x09, 0x78, 0x00, 0x00, 0x00, 0x04, 0x00, 0x00, 0x00,
  0xff, 0xff, 0xff, 0xff, 0x5c, 0x00, 0x00, 0x00, 0x08, 0x00, 0x00, 0x00,
  0x06, 0x00, 0x00, 0x00, 0xac, 0xf7, 0xff, 0xff, 0x08, 0x00, 0x00, 0x00,
  0x14, 0x00, 0x00, 0x00, 0x01, 0x00, 0x00, 0x00, 0x80, 0xff, 0xff, 0xff,
  0xff, 0xff, 0xff, 0xff, 0x00, 0x00, 0x00, 0x00, 0x01, 0x00, 0x00, 0x00,
  0x36, 0x19, 0x02, 0x3c, 0x37, 0x00, 0x00, 0x00, 0x53, 0x45, 0x41, 0x42,
  0x41, 0x44, 0x5f, 0x4c, 0x6f, 0x77, 0x5f, 0x50, 0x6f, 0x77, 0x65, 0x72,
  0x5f, 0x4f, 0x70, 0x74, 0x69, 0x6d, 0x69, 0x7a, 0x65, 0x64, 0x5f, 0x66,
  0x6f, 0x6c, 0x64, 0x65, 0x64, 0x2f, 0x6d, 0x61, 0x78, 0x5f, 0x70, 0x6f,
  0x6f, 0x6c, 0x69, 0x6e, 0x67, 0x32, 0x64, 0x2f, 0x4d, 0x61, 0x78, 0x50,
  0x6f, 0x6f, 0x6c, 0x00, 0x04, 0x00, 0x00, 0x00, 0x01, 0x00, 0x00, 0x00,
  0x5c, 0x00, 0x00, 0x00, 0x08, 0x00, 0x00, 0x00, 0x06, 0x00, 0x00, 0x00,
  0x6a, 0xf8, 0xff, 0xff, 0x00, 0x00, 0x00, 0x01, 0x18, 0x00, 0x00, 0x00,
  0x28, 0x00, 0x00, 0x00, 0x48, 0x00, 0x00, 0x00, 0x0b, 0x00, 0x00, 0x00,
  0x00, 0x00, 0x00, 0x09, 0x10, 0x01, 0x00, 0x00, 0x04, 0x00, 0x00, 0x00,
  0xff, 0xff, 0xff, 0xff, 0xb8, 0x00, 0x00, 0x00, 0x10, 0x00, 0x00, 0x00,
  0x06, 0x00, 0x00, 0x00, 0x54, 0xf8, 0xff, 0xff, 0x08, 0x00, 0x00, 0x00,
  0x14, 0x00, 0x00, 0x00, 0x01, 0x00, 0x00, 0x00, 0x80, 0xff, 0xff, 0xff,
  0xff, 0xff, 0xff, 0xff, 0x00, 0x00, 0x00, 0x00, 0x01, 0x00, 0x00, 0x00,
  0x36, 0x19, 0x02, 0x3c, 0xce, 0x00, 0x00, 0x00, 0x53, 0x45, 0x41, 0x42,
  0x41, 0x44, 0x5f, 0x4c, 0x6f, 0x77, 0x5f, 0x50, 0x6f, 0x77, 0x65, 0x72,
  0x5f, 0x4f, 0x70, 0x74, 0x69, 0x6d, 0x69, 0x7a, 0x65, 0x64, 0x5f, 0x66,
  0x6f, 0x6c, 0x64, 0x65, 0x64, 0x2f, 0x63, 0x6f, 0x6e, 0x76, 0x32, 0x64,
  0x2f, 0x52, 0x65, 0x6c, 0x75, 0x3b, 0x53, 0x45, 0x41, 0x42, 0x41, 0x44,
  0x5f, 0x4c, 0x6f, 0x77, 0x5f, 0x50, 0x6f, 0x77, 0x65, 0x72, 0x5f, 0x4f,
  0x70, 0x74, 0x69, 0x6d, 0x69, 0x7a, 0x65, 0x64, 0x5f, 0x66, 0x6f, 0x6c,
  0x64, 0x65, 0x64, 0x2f, 0x63, 0x6f, 0x6e, 0x76, 0x32, 0x64, 0x2f, 0x42,
  0x69, 0x61, 0x73, 0x41, 0x64, 0x64, 0x3b, 0x53, 0x45, 0x41, 0x42, 0x41,
  0x44, 0x5f, 0x4c, 0x6f, 0x77, 0x5f, 0x50, 0x6f, 0x77, 0x65, 0x72, 0x5f,
  0x4f, 0x70, 0x74, 0x69, 0x6d, 0x69, 0x7a, 0x65, 0x64, 0x5f, 0x66, 0x6f,
  0x6c, 0x64, 0x65, 0x64, 0x2f, 0x63, 0x6f, 0x6e, 0x76, 0x32, 0x64, 0x2f,
  0x43, 0x6f, 0x6e, 0x76, 0x32, 0x44, 0x3b, 0x53, 0x45, 0x41, 0x42, 0x41,
  0x44, 0x5f, 0x4c, 0x6f, 0x77, 0x5f, 0x50, 0x6f, 0x77, 0x65, 0x72, 0x5f,
  0x4f, 0x70, 0x74, 0x69, 0x6d, 0x69, 0x7a, 0x65, 0x64, 0x5f, 0x66, 0x6f,
  0x6c, 0x64, 0x65, 0x64, 0x2f, 0x63, 0x6f, 0x6e, 0x76, 0x32, 0x64, 0x2f,
  0x42, 0x69, 0x61, 0x73, 0x41, 0x64, 0x64, 0x2f, 0x52, 0x65, 0x61, 0x64,
  0x56, 0x61, 0x72, 0x69, 0x61, 0x62, 0x6c, 0x65, 0x4f, 0x70, 0x00, 0x00,
  0x04, 0x00, 0x00, 0x00, 0x01, 0x00, 0x00, 0x00, 0xb8, 0x00, 0x00, 0x00,
  0x10, 0x00, 0x00, 0x00, 0x06, 0x00, 0x00, 0x00, 0xaa, 0xf9, 0xff, 0xff,
  0x00, 0x00, 0x00, 0x01, 0x18, 0x00, 0x00, 0x00, 0x28, 0x00, 0x00, 0x00,
  0x44, 0x00, 0x00, 0x00, 0x0a, 0x00, 0x00, 0x00, 0x00, 0x00, 0x00, 0x09,
  0x78, 0x00, 0x00, 0x00, 0x04, 0x00, 0x00, 0x00, 0xff, 0xff, 0xff, 0xff,
  0xb8, 0x00, 0x00, 0x00, 0x10, 0x00, 0x00, 0x00, 0x01, 0x00, 0x00, 0x00,
  0x94, 0xf9, 0xff, 0xff, 0x08, 0x00, 0x00, 0x00, 0x10, 0x00, 0x00, 0x00,
  0x01, 0x00, 0x00, 0x00, 0x80, 0xff, 0xff, 0xff, 0xff, 0xff, 0xff, 0xff,
  0x01, 0x00, 0x00, 0x00, 0x7f, 0x80, 0x80, 0x3b, 0x3a, 0x00, 0x00, 0x00,
  0x53, 0x45, 0x41, 0x42, 0x41, 0x44, 0x5f, 0x4c, 0x6f, 0x77, 0x5f, 0x50,
  0x6f, 0x77, 0x65, 0x72, 0x5f, 0x4f, 0x70, 0x74, 0x69, 0x6d, 0x69, 0x7a,
  0x65, 0x64, 0x5f, 0x66, 0x6f, 0x6c, 0x64, 0x65, 0x64, 0x2f, 0x66, 0x72,
  0x65, 0x71, 0x5f, 0x65, 0x6d, 0x70, 0x68, 0x61, 0x73, 0x69, 0x73, 0x5f,
  0x66, 0x6f, 0x6c, 0x64, 0x65, 0x64, 0x2f, 0x6d, 0x75, 0x6c, 0x00, 0x00,
  0x04, 0x00, 0x00, 0x00, 0x01, 0x00, 0x00, 0x00, 0xb8, 0x00, 0x00, 0x00,
  0x10, 0x00, 0x00, 0x00, 0x01, 0x00, 0x00, 0x00, 0xee, 0xfa, 0xff, 0xff,
  0x00, 0x00, 0x00, 0x01, 0x14, 0x00, 0x00, 0x00, 0x34, 0x00, 0x00, 0x00,
  0x09, 0x00, 0x00, 0x00, 0x00, 0x00, 0x00, 0x09, 0x34, 0x00, 0x00, 0x00,
  0x24, 0xfa, 0xff, 0xff, 0x08, 0x00, 0x00, 0x00, 0x14, 0x00, 0x00, 0x00,
  0x01, 0x00, 0x00, 0x00, 0x80, 0xff, 0xff, 0xff, 0xff, 0xff, 0xff, 0xff,
  0x00, 0x00, 0x00, 0x00, 0x01, 0x00, 0x00, 0x00, 0x7f, 0x80, 0x80, 0x3b,
  0x05, 0x00, 0x00, 0x00, 0x43, 0x6f, 0x6e, 0x73, 0x74, 0x00, 0x00, 0x00,
  0x04, 0x00, 0x00, 0x00, 0x01, 0x00, 0x00, 0x00, 0x01, 0x00, 0x00, 0x00,
  0x10, 0x00, 0x00, 0x00, 0x01, 0x00, 0x00, 0x00, 0x4e, 0xfb, 0xff, 0xff,
  0x00, 0x00, 0x00, 0x01, 0x14, 0x00, 0x00, 0x00, 0x6c, 0x00, 0x00, 0x00,
  0x08, 0x00, 0x00, 0x00, 0x00, 0x00, 0x00, 0x09, 0x94, 0x00, 0x00, 0x00,
  0x84, 0xfa, 0xff, 0xff, 0x08, 0x00, 0x00, 0x00, 0x38, 0x00, 0x00, 0x00,
  0x06, 0x00, 0x00, 0x00, 0x00, 0x00, 0x00, 0x00, 0x00, 0x00, 0x00, 0x00,
  0x00, 0x00, 0x00, 0x00, 0x00, 0x00, 0x00, 0x00, 0x00, 0x00, 0x00, 0x00,
  0x00, 0x00, 0x00, 0x00, 0x00, 0x00, 0x00, 0x00, 0x00, 0x00, 0x00, 0x00,
  0x00, 0x00, 0x00, 0x00, 0x00, 0x00, 0x00, 0x00, 0x00, 0x00, 0x00, 0x00,
  0x00, 0x00, 0x00, 0x00, 0x06, 0x00, 0x00, 0x00, 0xdc, 0x0c, 0x04, 0x3c,
  0x9c, 0x66, 0xcf, 0x3b, 0xe1, 0xd8, 0xf2, 0x3b, 0x4b, 0xe7, 0xa6, 0x3b,
  0x83, 0x6f, 0x0a, 0x3c, 0x4a, 0x46, 0x87, 0x31, 0x2f, 0x00, 0x00, 0x00,
  0x53, 0x45, 0x41, 0x42, 0x41, 0x44, 0x5f, 0x4c, 0x6f, 0x77, 0x5f, 0x50,
  0x6f, 0x77, 0x65, 0x72, 0x5f, 0x4f, 0x70, 0x74, 0x69, 0x6d, 0x69, 0x7a,
  0x65, 0x64, 0x5f, 0x66, 0x6f, 0x6c, 0x64, 0x65, 0x64, 0x2f, 0x63, 0x6f,
  0x6e, 0x76, 0x32, 0x64, 0x2f, 0x43, 0x6f, 0x6e, 0x76, 0x32, 0x44, 0x00,
  0x04, 0x00, 0x00, 0x00, 0x06, 0x00, 0x00, 0x00, 0x03, 0x00, 0x00, 0x00,
  0x03, 0x00, 0x00, 0x00, 0x01, 0x00, 0x00, 0x00, 0x0e, 0xfc, 0xff, 0xff,
  0x00, 0x00, 0x00, 0x01, 0x14, 0x00, 0x00, 0x00, 0x70, 0x00, 0x00, 0x00,
  0x07, 0x00, 0x00, 0x00, 0x00, 0x00, 0x00, 0x02, 0xa8, 0x00, 0x00, 0x00,
  0x44, 0xfb, 0xff, 0xff, 0x08, 0x00, 0x00, 0x00, 0x3c, 0x00, 0x00, 0x00,
  0x06, 0x00, 0x00, 0x00, 0x00, 0x00, 0x00, 0x00, 0x00, 0x00, 0x00, 0x00,
  0x00, 0x00, 0x00, 0x00, 0x00, 0x00, 0x00, 0x00, 0x00, 0x00, 0x00, 0x00,
  0x00, 0x00, 0x00, 0x00, 0x00, 0x00, 0x00, 0x00, 0x00, 0x00, 0x00, 0x00,
  0x00, 0x00, 0x00, 0x00, 0x00, 0x00, 0x00, 0x00, 0x00, 0x00, 0x00, 0x00,
  0x00, 0x00, 0x00, 0x00, 0x00, 0x00, 0x00, 0x00, 0x06, 0x00, 0x00, 0x00,
  0x6c, 0x91, 0x04, 0x38, 0xd0, 0x36, 0xd0, 0x37, 0xab, 0xcc, 0xf3, 0x37,
  0xd8, 0x8e, 0xa7, 0x37, 0x7c, 0xfa, 0x0a, 0x38, 0x17, 0xce, 0x87, 0x2d,
  0x3f, 0x00, 0x00, 0x00, 0x53, 0x45, 0x41, 0x42, 0x41, 0x44, 0x5f, 0x4c,
  0x6f, 0x77, 0x5f, 0x50, 0x6f, 0x77, 0x65, 0x72, 0x5f, 0x4f, 0x70, 0x74,
  0x69, 0x6d, 0x69, 0x7a, 0x65, 0x64, 0x5f, 0x66, 0x6f, 0x6c, 0x64, 0x65,
  0x64, 0x2f, 0x63, 0x6f, 0x6e, 0x76, 0x32, 0x64, 0x2f, 0x42, 0x69, 0x61,
  0x73, 0x41, 0x64, 0x64, 0x2f, 0x52, 0x65, 0x61, 0x64, 0x56, 0x61, 0x72,
  0x69, 0x61, 0x62, 0x6c, 0x65, 0x4f, 0x70, 0x00, 0x01, 0x00, 0x00, 0x00,
  0x06, 0x00, 0x00, 0x00, 0xd6, 0xfc, 0xff, 0xff, 0x00, 0x00, 0x00, 0x01,
  0x14, 0x00, 0x00, 0x00, 0xb8, 0x00, 0x00, 0x00, 0x06, 0x00, 0x00, 0x00,
  0x00, 0x00, 0x00, 0x09, 0xe4, 0x00, 0x00, 0x00, 0x0c, 0xfc, 0xff, 0xff,
  0x08, 0x00, 0x00, 0x00, 0x6c, 0x00, 0x00, 0x00, 0x0c, 0x00, 0x00, 0x00,
  0x00, 0x00, 0x00, 0x00, 0x00, 0x00, 0x00, 0x00, 0x00, 0x00, 0x00, 0x00,
  0x00, 0x00, 0x00, 0x00, 0x00, 0x00, 0x00, 0x00, 0x00, 0x00, 0x00, 0x00,
  0x00, 0x00, 0x00, 0x00, 0x00, 0x00, 0x00, 0x00, 0x00, 0x00, 0x00, 0x00,
  0x00, 0x00, 0x00, 0x00, 0x00, 0x00, 0x00, 0x00, 0x00, 0x00, 0x00, 0x00,
  0x00, 0x00, 0x00, 0x00, 0x00, 0x00, 0x00, 0x00, 0x00, 0x00, 0x00, 0x00,
  0x00, 0x00, 0x00, 0x00, 0x00, 0x00, 0x00, 0x00, 0x00, 0x00, 0x00, 0x00,
  0x00, 0x00, 0x00, 0x00, 0x00, 0x00, 0x00, 0x00, 0x00, 0x00, 0x00, 0x00,
  0x00, 0x00, 0x00, 0x00, 0x00, 0x00, 0x00, 0x00, 0x00, 0x00, 0x00, 0x00,
  0x00, 0x00, 0x00, 0x00, 0x0c, 0x00, 0x00, 0x00, 0x37, 0x77, 0x91, 0x3b,
  0x3e, 0xf3, 0x0f, 0x3b, 0x80, 0x25, 0x62, 0x3b, 0x15, 0xa5, 0x84, 0x3b,
  0xf1, 0x78, 0x5a, 0x3b, 0x88, 0x10, 0xaa, 0x3b, 0x8b, 0x11, 0x40, 0x3b,
  0x54, 0xa1, 0x8e, 0x3b, 0x37, 0xc6, 0x9e, 0x3b, 0xa9, 0x56, 0x82, 0x3b,
  0xb3, 0xc2, 0x49, 0x3b, 0xfa, 0x7f, 0x02, 0x3b, 0x31, 0x00, 0x00, 0x00,
  0x53, 0x45, 0x41, 0x42, 0x41, 0x44, 0x5f, 0x4c, 0x6f, 0x77, 0x5f, 0x50,
  0x6f, 0x77, 0x65, 0x72, 0x5f, 0x4f, 0x70, 0x74, 0x69, 0x6d, 0x69, 0x7a,
  0x65, 0x64, 0x5f, 0x66, 0x6f, 0x6c, 0x64, 0x65, 0x64, 0x2f, 0x63, 0x6f,
  0x6e, 0x76, 0x32, 0x64, 0x5f, 0x31, 0x2f, 0x43, 0x6f, 0x6e, 0x76, 0x32,
  0x44, 0x00, 0x00, 0x00, 0x04, 0x00, 0x00, 0x00, 0x0c, 0x00, 0x00, 0x00,
  0x03, 0x00, 0x00, 0x00, 0x03, 0x00, 0x00, 0x00, 0x06, 0x00, 0x00, 0x00,
  0xe6, 0xfd, 0xff, 0xff, 0x00, 0x00, 0x00, 0x01, 0x14, 0x00, 0x00, 0x00,
  0xb4, 0x00, 0x00, 0x00, 0x05, 0x00, 0x00, 0x00, 0x00, 0x00, 0x00, 0x02,
  0xf0, 0x00, 0x00, 0x00, 0x1c, 0xfd, 0xff, 0xff, 0x08, 0x00, 0x00, 0x00,
  0x68, 0x00, 0x00, 0x00, 0x0c, 0x00, 0x00, 0x00, 0x00, 0x00, 0x00, 0x00,
  0x00, 0x00, 0x00, 0x00, 0x00, 0x00, 0x00, 0x00, 0x00, 0x00, 0x00, 0x00,
  0x00, 0x00, 0x00, 0x00, 0x00, 0x00, 0x00, 0x00, 0x00, 0x00, 0x00, 0x00,
  0x00, 0x00, 0x00, 0x00, 0x00, 0x00, 0x00, 0x00, 0x00, 0x00, 0x00, 0x00,
  0x00, 0x00, 0x00, 0x00, 0x00, 0x00, 0x00, 0x00, 0x00, 0x00, 0x00, 0x00,
  0x00, 0x00, 0x00, 0x00, 0x00, 0x00, 0x00, 0x00, 0x00, 0x00, 0x00, 0x00,
  0x00, 0x00, 0x00, 0x00, 0x00, 0x00, 0x00, 0x00, 0x00, 0x00, 0x00, 0x00,
  0x00, 0x00, 0x00, 0x00, 0x00, 0x00, 0x00, 0x00, 0x00, 0x00, 0x00, 0x00,
  0x00, 0x00, 0x00, 0x00, 0x00, 0x00, 0x00, 0x00, 0x0c, 0x00, 0x00, 0x00,
  0xbb, 0xd9, 0x13, 0x38, 0x65, 0x4f, 0x92, 0x37, 0xa1, 0xda, 0xe5, 0x37,
  0xca, 0xd1, 0x06, 0x38, 0xdd, 0x0d, 0xde, 0x37, 0x49, 0xda, 0x2c, 0x38,
  0xa6, 0x37, 0xc3, 0x37, 0xf1, 0xf7, 0x10, 0x38, 0x96, 0x60, 0x21, 0x38,
  0xb0, 0x79, 0x04, 0x38, 0x7b, 0x11, 0xcd, 0x37, 0xae, 0xa3, 0x84, 0x37,
  0x41, 0x00, 0x00, 0x00, 0x53, 0x45, 0x41, 0x42, 0x41, 0x44, 0x5f, 0x4c,
  0x6f, 0x77, 0x5f, 0x50, 0x6f, 0x77, 0x65, 0x72, 0x5f, 0x4f, 0x70, 0x74,
  0x69, 0x6d, 0x69, 0x7a, 0x65, 0x64, 0x5f, 0x66, 0x6f, 0x6c, 0x64, 0x65,
  0x64, 0x2f, 0x63, 0x6f, 0x6e, 0x76, 0x32, 0x64, 0x5f, 0x31, 0x2f, 0x42,
  0x69, 0x61, 0x73, 0x41, 0x64, 0x64, 0x2f, 0x52, 0x65, 0x61, 0x64, 0x56,
  0x61, 0x72, 0x69, 0x61, 0x62, 0x6c, 0x65, 0x4f, 0x70, 0x00, 0x00, 0x00,
  0x01, 0x00, 0x00, 0x00, 0x0c, 0x00, 0x00, 0x00, 0xf6, 0xfe, 0xff, 0xff,
  0x00, 0x00, 0x00, 0x01, 0x14, 0x00, 0x00, 0x00, 0x34, 0x00, 0x00, 0x00,
  0x04, 0x00, 0x00, 0x00, 0x00, 0x00, 0x00, 0x09, 0x5c, 0x00, 0x00, 0x00,
  0x2c, 0xfe, 0xff, 0xff, 0x08, 0x00, 0x00, 0x00, 0x14, 0x00, 0x00, 0x00,
  0x01, 0x00, 0x00, 0x00, 0x00, 0x00, 0x00, 0x00, 0x00, 0x00, 0x00, 0x00,
  0x00, 0x00, 0x00, 0x00, 0x01, 0x00, 0x00, 0x00, 0x8b, 0xd1, 0x93, 0x3d,
  0x2e, 0x00, 0x00, 0x00, 0x53, 0x45, 0x41, 0x42, 0x41, 0x44, 0x5f, 0x4c,
  0x6f, 0x77, 0x5f, 0x50, 0x6f, 0x77, 0x65, 0x72, 0x5f, 0x4f, 0x70, 0x74,
  0x69, 0x6d, 0x69, 0x7a, 0x65, 0x64, 0x5f, 0x66, 0x6f, 0x6c, 0x64, 0x65,
  0x64, 0x2f, 0x64, 0x65, 0x6e, 0x73, 0x65, 0x2f, 0x4d, 0x61, 0x74, 0x4d,
  0x75, 0x6c, 0x00, 0x00, 0x02, 0x00, 0x00, 0x00, 0x02, 0x00, 0x00, 0x00,
  0x0c, 0x00, 0x00, 0x00, 0x76, 0xff, 0xff, 0xff, 0x00, 0x00, 0x00, 0x01,
  0x14, 0x00, 0x00, 0x00, 0x30, 0x00, 0x00, 0x00, 0x03, 0x00, 0x00, 0x00,
  0x00, 0x00, 0x00, 0x02, 0x68, 0x00, 0x00, 0x00, 0xac, 0xfe, 0xff, 0xff,
  0x08, 0x00, 0x00, 0x00, 0x10, 0x00, 0x00, 0x00, 0x01, 0x00, 0x00, 0x00,
  0x00, 0x00, 0x00, 0x00, 0x00, 0x00, 0x00, 0x00, 0x01, 0x00, 0x00, 0x00,
  0x47, 0x37, 0x79, 0x38, 0x3e, 0x00, 0x00, 0x00, 0x53, 0x45, 0x41, 0x42,
  0x41, 0x44, 0x5f, 0x4c, 0x6f, 0x77, 0x5f, 0x50, 0x6f, 0x77, 0x65, 0x72,
  0x5f, 0x4f, 0x70, 0x74, 0x69, 0x6d, 0x69, 0x7a, 0x65, 0x64, 0x5f, 0x66,
  0x6f, 0x6c, 0x64, 0x65, 0x64, 0x2f, 0x64, 0x65, 0x6e, 0x73, 0x65, 0x2f,
  0x42, 0x69, 0x61, 0x73, 0x41, 0x64, 0x64, 0x2f, 0x52, 0x65, 0x61, 0x64,
  0x56, 0x61, 0x72, 0x69, 0x61, 0x62, 0x6c, 0x65, 0x4f, 0x70, 0x00, 0x00,
  0x01, 0x00, 0x00, 0x00, 0x02, 0x00, 0x00, 0x00, 0x00, 0x00, 0x16, 0x00,
  0x1c, 0x00, 0x18, 0x00, 0x17, 0x00, 0x10, 0x00, 0x0c, 0x00, 0x08, 0x00,
  0x00, 0x00, 0x00, 0x00, 0x00, 0x00, 0x07, 0x00, 0x16, 0x00, 0x00, 0x00,
  0x00, 0x00, 0x00, 0x01, 0x18, 0x00, 0x00, 0x00, 0x18, 0x00, 0x00, 0x00,
  0x02, 0x00, 0x00, 0x00, 0x00, 0x00, 0x00, 0x02, 0x64, 0x00, 0x00, 0x00,
  0x04, 0x00, 0x04, 0x00, 0x04, 0x00, 0x00, 0x00, 0x51, 0x00, 0x00, 0x00,
  0x53, 0x45, 0x41, 0x42, 0x41, 0x44, 0x5f, 0x4c, 0x6f, 0x77, 0x5f, 0x50,
  0x6f, 0x77, 0x65, 0x72, 0x5f, 0x4f, 0x70, 0x74, 0x69, 0x6d, 0x69, 0x7a,
  0x65, 0x64, 0x5f, 0x66, 0x6f, 0x6c, 0x64, 0x65, 0x64, 0x2f, 0x67, 0x6c,
  0x6f, 0x62, 0x61, 0x6c, 0x5f, 0x61, 0x76, 0x65, 0x72, 0x61, 0x67, 0x65,
  0x5f, 0x70, 0x6f, 0x6f, 0x6c, 0x69, 0x6e, 0x67, 0x32, 0x64, 0x2f, 0x4d,
  0x65, 0x61, 0x6e, 0x2f, 0x72, 0x65, 0x64, 0x75, 0x63, 0x74, 0x69, 0x6f,
  0x6e, 0x5f, 0x69, 0x6e, 0x64, 0x69, 0x63, 0x65, 0x73, 0x00, 0x00, 0x00,
  0x01, 0x00, 0x00, 0x00, 0x02, 0x00, 0x00, 0x00, 0x00, 0x00, 0x16, 0x00,
  0x20, 0x00, 0x1c, 0x00, 0x1b, 0x00, 0x14, 0x00, 0x10, 0x00, 0x0c, 0x00,
  0x00, 0x00, 0x00, 0x00, 0x08, 0x00, 0x07, 0x00, 0x16, 0x00, 0x00, 0x00,
  0x00, 0x00, 0x00, 0x01, 0x18, 0x00, 0x00, 0x00, 0x34, 0x00, 0x00, 0x00,
  0x54, 0x00, 0x00, 0x00, 0x01, 0x00, 0x00, 0x00, 0x00, 0x00, 0x00, 0x09,
  0x68, 0x00, 0x00, 0x00, 0x04, 0x00, 0x00, 0x00, 0xff, 0xff, 0xff, 0xff,
  0xb8, 0x00, 0x00, 0x00, 0x10, 0x00, 0x00, 0x00, 0x01, 0x00, 0x00, 0x00,
  0x0c, 0x00, 0x0c, 0x00, 0x00, 0x00, 0x00, 0x00, 0x08, 0x00, 0x04, 0x00,
  0x0c, 0x00, 0x00, 0x00, 0x08, 0x00, 0x00, 0x00, 0x14, 0x00, 0x00, 0x00,
  0x01, 0x00, 0x00, 0x00, 0x80, 0xff, 0xff, 0xff, 0xff, 0xff, 0xff, 0xff,
  0x00, 0x00, 0x00, 0x00, 0x01, 0x00, 0x00, 0x00, 0x81, 0x80, 0x80, 0x3b,
  0x19, 0x00, 0x00, 0x00, 0x73, 0x65, 0x72, 0x76, 0x69, 0x6e, 0x67, 0x5f,
  0x64, 0x65, 0x66, 0x61, 0x75, 0x6c, 0x74, 0x5f, 0x69, 0x6e, 0x70, 0x75,
  0x74, 0x5f, 0x31, 0x3a, 0x30, 0x00, 0x00, 0x00, 0x04, 0x00, 0x00, 0x00,
  0x01, 0x00, 0x00, 0x00, 0xb8, 0x00, 0x00, 0x00, 0x10, 0x00, 0x00, 0x00,
  0x01, 0x00, 0x00, 0x00, 0x06, 0x00, 0x00, 0x00, 0x74, 0x00, 0x00, 0x00,
  0x54, 0x00, 0x00, 0x00, 0x40, 0x00, 0x00, 0x00, 0x2c, 0x00, 0x00, 0x00,
  0x18, 0x00, 0x00, 0x00, 0x04, 0x00, 0x00, 0x00, 0xb0, 0xff, 0xff, 0xff,
  0x19, 0x00, 0x00, 0x00, 0x02, 0x00, 0x00, 0x00, 0x00, 0x00, 0x00, 0x19,
  0xc0, 0xff, 0xff, 0xff, 0x09, 0x00, 0x00, 0x00, 0x04, 0x00, 0x00, 0x00,
  0x00, 0x00, 0x00, 0x09, 0xd0, 0xff, 0xff, 0xff, 0x28, 0x00, 0x00, 0x00,
  0x02, 0x00, 0x00, 0x00, 0x00, 0x00, 0x00, 0x28, 0xe0, 0xff, 0xff, 0xff,
  0x11, 0x00, 0x00, 0x00, 0x02, 0x00, 0x00, 0x00, 0x00, 0x00, 0x00, 0x11,
  0xf0, 0xff, 0xff, 0xff, 0x03, 0x00, 0x00, 0x00, 0x03, 0x00, 0x00, 0x00,
  0x00, 0x00, 0x00, 0x03, 0x0c, 0x00, 0x10, 0x00, 0x0f, 0x00, 0x00, 0x00,
  0x08, 0x00, 0x04, 0x00, 0x0c, 0x00, 0x00, 0x00, 0x12, 0x00, 0x00, 0x00,
  0x02, 0x00, 0x00, 0x00, 0x00, 0x00, 0x00, 0x12
};
const unsigned int drongonet_micro_len = 5312;

#endif